const unsigned char model[] = {
  0x20, 0x00, 0x00, 0x00, 0x54, 0x46, 0x4c, 0x33, 0x00, 0x00, 0x00, 0x00,
  0x00, 0x00, 0x12, 0x00, 0x1c, 0x00, 0x04, 0x00, 0x08, 0x00, 0x0c, 0x00,
  0x10, 0x00, 0x14, 0x00, 0x00, 0x00, 0x18, 0x00, 0x12, 0x00, 0x00, 0x00,
  0x03, 0x00, 0x00, 0x00, 0xcc, 0x18, 0x00, 0x00, 0xd8, 0x10, 0x00, 0x00,
  0xc0, 0x10, 0x00, 0x00, 0x3c, 0x00, 0x00, 0x00, 0x04, 0x00, 0x00, 0x00,
  0x01, 0x00, 0x00, 0x00, 0x0c, 0x00, 0x00, 0x00, 0x08, 0x00, 0x0c, 0x00,
  0x04, 0x00, 0x08, 0x00, 0x08, 0x00, 0x00, 0x00, 0x08, 0x00, 0x00, 0x00,
  0x0c, 0x00, 0x00, 0x00, 0x13, 0x00, 0x00, 0x00, 0x6d, 0x69, 0x6e, 0x5f,
  0x72, 0x75, 0x6e, 0x74, 0x69, 0x6d, 0x65, 0x5f, 0x76, 0x65, 0x72, 0x73,
  0x69, 0x6f, 0x6e, 0x00, 0x0d, 0x00, 0x00, 0x00, 0x78, 0x10, 0x00, 0x00,
  0x60, 0x10, 0x00, 0x00, 0x30, 0x10, 0x00, 0x00, 0xe4, 0x0f, 0x00, 0x00,
  0x0c, 0x0f, 0x00, 0x00, 0x04, 0x0f, 0x00, 0x00, 0x04, 0x0c, 0x00, 0x00,
  0xfc, 0x0b, 0x00, 0x00, 0xf4, 0x0b, 0x00, 0x00, 0x2c, 0x00, 0x00, 0x00,
  0x24, 0x00, 0x00, 0x00, 0x1c, 0x00, 0x00, 0x00, 0x04, 0x00, 0x00, 0x00,
  0x22, 0xef, 0xff, 0xff, 0x04, 0x00, 0x00, 0x00, 0x05, 0x00, 0x00, 0x00,
  0x31, 0x2e, 0x35, 0x2e, 0x30, 0x00, 0x00, 0x00, 0x04, 0xef, 0xff, 0xff,
  0x08, 0xef, 0xff, 0xff, 0x3e, 0xef, 0xff, 0xff, 0x04, 0x00, 0x00, 0x00,
  0xb8, 0x0b, 0x00, 0x00, 0xee, 0x4c, 0xcb, 0xf2, 0xee, 0x15, 0x2b, 0xb2,
  0xc9, 0xf6, 0xde, 0xe6, 0x2e, 0x17, 0xf9, 0xaa, 0xfa, 0x61, 0x1f, 0xca,
  0x3d, 0x2a, 0x4a, 0x33, 0xd5, 0xd6, 0xba, 0x0f, 0xef, 0xf5, 0x29, 0xd0,
  0x43, 0xd9, 0x28, 0x01, 0x26, 0xcb, 0x35, 0xeb, 0x10, 0x18, 0x0d, 0x2f,
  0xd3, 0xf7, 0x46, 0xfe, 0x34, 0x0e, 0x03, 0xff, 0xea, 0x20, 0xd2, 0x1a,
  0x2b, 0xe0, 0x19, 0x1e, 0x4f, 0xe5, 0x38, 0xd7, 0x10, 0xee, 0x1c, 0x09,
  0x31, 0xa7, 0x22, 0x0a, 0xb1, 0xf0, 0xfb, 0x0f, 0x38, 0xbf, 0xcc, 0xbe,
  0xf7, 0xcb, 0x04, 0xfc, 0xfc, 0xbf, 0xc2, 0xdc, 0x04, 0xf6, 0xe7, 0x4a,
  0x0e, 0xfd, 0x33, 0xc5, 0xfa, 0x38, 0x03, 0x03, 0x17, 0xd4, 0x15, 0xc6,
  0xb8, 0x22, 0xf8, 0xfd, 0xec, 0x0e, 0x12, 0xf6, 0x5f, 0x39, 0xd0, 0xf6,
  0xd9, 0xd0, 0x33, 0x1c, 0xd4, 0x24, 0x05, 0x35, 0xde, 0xe0, 0xa0, 0x44,
  0x32, 0xfb, 0x38, 0x34, 0xc1, 0xde, 0x39, 0x1a, 0xca, 0x2f, 0xd0, 0x23,
  0xd8, 0xee, 0x2a, 0x33, 0x25, 0x08, 0xc8, 0xc2, 0xb7, 0xeb, 0x04, 0xbb,
  0xf5, 0xff, 0x3e, 0xef, 0xf0, 0xde, 0x02, 0xfe, 0x1a, 0xbe, 0x15, 0xf3,
  0x4b, 0xf6, 0xae, 0xf6, 0xef, 0xac, 0xfb, 0x4b, 0xfc, 0xd5, 0xd9, 0xca,
  0x17, 0x0b, 0xfa, 0xf3, 0x12, 0xbf, 0x40, 0xfb, 0xf5, 0x45, 0x1f, 0x61,
  0xfd, 0x24, 0x23, 0x25, 0xf9, 0x1f, 0xd1, 0x31, 0xf9, 0xba, 0xb1, 0x26,
  0xd3, 0xac, 0x49, 0x16, 0x15, 0xfa, 0xa9, 0xf5, 0xc0, 0xe3, 0xe0, 0x31,
  0xf6, 0xce, 0xca, 0xeb, 0xf6, 0x32, 0x3e, 0x1f, 0x0a, 0xea, 0xc3, 0x31,
  0x26, 0xbc, 0x2f, 0xa9, 0xab, 0x28, 0xeb, 0xdf, 0x06, 0xed, 0xcb, 0x06,
  0xf6, 0x63, 0xc5, 0x08, 0xe8, 0xe5, 0x23, 0x5b, 0xdb, 0xde, 0xea, 0xfe,
  0x02, 0xce, 0x09, 0xd4, 0x40, 0xd0, 0x53, 0xf8, 0x02, 0x04, 0xe3, 0x01,
  0x0c, 0xe3, 0x02, 0x1b, 0xe8, 0x2d, 0xef, 0x09, 0x3b, 0x34, 0x1c, 0xf9,
  0x07, 0x07, 0xea, 0x46, 0x39, 0x45, 0xfc, 0x9f, 0xc6, 0xfa, 0xdd, 0x1a,
  0xd1, 0x00, 0xb2, 0xbe, 0xfd, 0x08, 0x02, 0xdd, 0x18, 0x15, 0x49, 0x07,
  0x42, 0xc8, 0x1e, 0xf4, 0xfc, 0xd9, 0x42, 0xd1, 0x37, 0xda, 0xf5, 0xf6,
  0x66, 0xf9, 0xf3, 0x34, 0x05, 0xd1, 0x33, 0xfe, 0x12, 0x1c, 0xdd, 0xe2,
  0x35, 0xfb, 0x1f, 0xc2, 0x11, 0x19, 0xc9, 0x1a, 0x4f, 0x1b, 0x86, 0xe0,
  0x30, 0xa9, 0x18, 0x34, 0xe1, 0xd7, 0xcb, 0xed, 0x47, 0xf3, 0xaf, 0xec,
  0xc4, 0x34, 0x51, 0xcf, 0xe4, 0x0e, 0x92, 0xb9, 0x33, 0x03, 0x2b, 0x97,
  0xe3, 0x01, 0x17, 0xee, 0x25, 0x09, 0xe7, 0xe6, 0x3e, 0x14, 0xe9, 0xcc,
  0x0e, 0x4e, 0x24, 0xb7, 0x00, 0xb7, 0xea, 0x11, 0xe2, 0xd7, 0xbe, 0x04,
  0x0d, 0xba, 0xd8, 0xb7, 0xc4, 0x29, 0x19, 0x4c, 0x1a, 0xb0, 0xe5, 0x1f,
  0x05, 0x38, 0x2b, 0xfa, 0x09, 0xac, 0xe7, 0xff, 0xec, 0xfd, 0xf4, 0xda,
  0x0e, 0x30, 0x1b, 0x41, 0xe8, 0xe0, 0x10, 0xe4, 0xfa, 0xd0, 0x48, 0xff,
  0x35, 0x0d, 0xad, 0xda, 0xf9, 0x0b, 0x3a, 0x37, 0x9e, 0xb9, 0xa9, 0x2f,
  0xea, 0xad, 0xdc, 0xd2, 0xb3, 0xc9, 0xbb, 0xd3, 0xc1, 0x1e, 0x5e, 0xcf,
  0xd7, 0xda, 0x09, 0x02, 0x60, 0x1f, 0xdf, 0xff, 0xf7, 0xfd, 0xdb, 0xf8,
  0x04, 0xf0, 0xe6, 0xee, 0xa1, 0x2e, 0x0a, 0xd8, 0x01, 0x16, 0xc6, 0xb4,
  0xf6, 0xdf, 0x13, 0xd5, 0xea, 0xfd, 0x4a, 0x53, 0x2b, 0x0a, 0x25, 0x05,
  0x14, 0xdc, 0x3c, 0x1e, 0x3b, 0x03, 0x39, 0x30, 0xa3, 0x0a, 0xf1, 0xf3,
  0x29, 0xf6, 0xff, 0x3e, 0xcf, 0xf9, 0xd3, 0xcf, 0xee, 0xf7, 0x22, 0x22,
  0xc4, 0xda, 0xd4, 0x11, 0x01, 0x4f, 0xd3, 0xd4, 0x04, 0xcf, 0xd9, 0xd3,
  0x4b, 0x12, 0x09, 0x16, 0x55, 0x1f, 0xaa, 0xc3, 0x0d, 0xb3, 0x1c, 0x08,
  0xe8, 0xe2, 0x37, 0x1a, 0x19, 0xd7, 0x0b, 0xdc, 0xb0, 0xc7, 0x40, 0xf2,
  0x0b, 0xec, 0xe1, 0x27, 0xf8, 0x0c, 0x46, 0x2d, 0xb7, 0xaa, 0xf2, 0xf4,
  0x1d, 0x09, 0xf1, 0x39, 0xe8, 0x22, 0xc5, 0x3c, 0x14, 0xfb, 0xa0, 0x41,
  0x23, 0x18, 0xba, 0xdd, 0x4c, 0xd9, 0x61, 0x16, 0x47, 0xdd, 0xfe, 0x1a,
  0xea, 0xeb, 0xff, 0x9e, 0x1a, 0x17, 0x12, 0x20, 0xe1, 0xb2, 0x09, 0x14,
  0x01, 0x35, 0x36, 0x16, 0xe5, 0x53, 0x4f, 0xfc, 0xcf, 0xf5, 0x50, 0x27,
  0x4f, 0x1b, 0x08, 0xf9, 0x1d, 0x14, 0x0e, 0x0a, 0x59, 0x3c, 0xd1, 0x17,
  0xe2, 0xcc, 0x08, 0xfb, 0x49, 0x2b, 0x6f, 0x1a, 0x09, 0xf1, 0x9a, 0x14,
  0xed, 0x3e, 0xce, 0x14, 0x12, 0x3f, 0x37, 0x48, 0x4d, 0x06, 0x12, 0xe3,
  0x4d, 0xb5, 0xfa, 0xda, 0x28, 0xeb, 0x20, 0x50, 0xca, 0xe9, 0xde, 0xaa,
  0x4d, 0x3f, 0xd5, 0xe2, 0x61, 0x4b, 0x2f, 0xd4, 0x17, 0x09, 0x3f, 0x08,
  0xe9, 0x11, 0xf9, 0xdd, 0x1a, 0xe5, 0xf2, 0xf1, 0x2f, 0x28, 0xb7, 0xeb,
  0xf4, 0xe2, 0xc8, 0x13, 0xaa, 0xef, 0x00, 0xcd, 0x61, 0xfe, 0x03, 0xe8,
  0xd1, 0x1a, 0x36, 0x16, 0x05, 0xe3, 0xca, 0xa2, 0x4b, 0x02, 0x59, 0xc8,
  0x47, 0x13, 0x00, 0x0a, 0x1a, 0x07, 0x14, 0x1e, 0xea, 0xd4, 0x28, 0x41,
  0x1a, 0x33, 0xdf, 0x15, 0xfa, 0x21, 0xf8, 0xeb, 0xf9, 0xed, 0xff, 0xdf,
  0x5b, 0x20, 0xea, 0xa1, 0x23, 0xff, 0xdf, 0x21, 0x5f, 0x03, 0x22, 0xcb,
  0x21, 0xc0, 0x15, 0x1f, 0xc5, 0x05, 0xe2, 0xcd, 0xe0, 0xf4, 0xeb, 0x41,
  0xd7, 0xaa, 0xf1, 0xa4, 0x11, 0xd9, 0x32, 0xc8, 0xe2, 0x0d, 0xdb, 0xbe,
  0x44, 0xc7, 0xc8, 0x64, 0x00, 0x01, 0xe0, 0xa0, 0xf8, 0x18, 0xc8, 0x0f,
  0xf7, 0x9b, 0x28, 0x3d, 0x20, 0x33, 0x5e, 0x63, 0xff, 0x1c, 0xdf, 0xae,
  0x61, 0xe9, 0x03, 0x0b, 0xeb, 0xa5, 0x28, 0xe1, 0xff, 0xdd, 0x35, 0x43,
  0xc7, 0x59, 0xfb, 0x1f, 0x19, 0x02, 0xfc, 0x31, 0x2a, 0x36, 0xcc, 0x48,
  0x20, 0xa4, 0xb5, 0xe8, 0x12, 0x07, 0x2e, 0xf0, 0x0b, 0x4d, 0x44, 0x04,
  0x0d, 0x32, 0x36, 0xff, 0xed, 0xe5, 0xc8, 0x9e, 0x74, 0x14, 0xfa, 0x02,
  0xe9, 0x2c, 0x20, 0xd9, 0x20, 0xcd, 0xd4, 0x3e, 0xdf, 0x49, 0xd0, 0xde,
  0x13, 0xe0, 0x30, 0xf2, 0x35, 0x32, 0xd3, 0xe7, 0x34, 0xfa, 0x19, 0x26,
  0x58, 0x0b, 0x0f, 0x49, 0x33, 0x0e, 0xb3, 0xde, 0xc9, 0xea, 0xc5, 0x2d,
  0x52, 0xec, 0xe7, 0xdc, 0xfc, 0x06, 0xda, 0x05, 0xdf, 0x03, 0x26, 0xbe,
  0xff, 0x32, 0xd6, 0xfd, 0x2c, 0xaf, 0xea, 0x36, 0xff, 0x02, 0x12, 0xf9,
  0xee, 0xad, 0xc7, 0x3a, 0xe7, 0x08, 0xc4, 0x09, 0xbf, 0xf4, 0xf6, 0xed,
  0x09, 0x33, 0xd9, 0x43, 0x18, 0x00, 0xf7, 0xd5, 0x20, 0x10, 0x64, 0xe8,
  0x02, 0xd3, 0xba, 0x07, 0x0c, 0xf6, 0x01, 0x0b, 0xf3, 0xcd, 0xd4, 0xd1,
  0x0f, 0xe4, 0xff, 0x29, 0x04, 0xc5, 0xf2, 0x24, 0xe1, 0x19, 0x40, 0x40,
  0x38, 0x27, 0x48, 0xb7, 0xec, 0xe3, 0xef, 0x1b, 0xc3, 0xfa, 0xfe, 0x09,
  0x9f, 0x00, 0x21, 0x22, 0xcf, 0xba, 0x4f, 0x1a, 0xaa, 0x07, 0x2b, 0xf3,
  0xca, 0xd6, 0xf9, 0x01, 0xb3, 0x02, 0xe1, 0x32, 0xce, 0xfd, 0xb2, 0xe8,
  0x5a, 0xd4, 0x9c, 0xe9, 0x98, 0xf7, 0x3d, 0x03, 0xb2, 0x35, 0xe0, 0x02,
  0x79, 0xe4, 0x9c, 0xe1, 0xa4, 0x27, 0x0a, 0x3a, 0xce, 0x21, 0xcf, 0xc2,
  0x49, 0x19, 0xec, 0xf5, 0x50, 0xc5, 0x2e, 0xeb, 0xb4, 0xb6, 0xe4, 0x1f,
  0x33, 0x2b, 0xca, 0xf5, 0x11, 0x0c, 0x3e, 0xb8, 0x47, 0x38, 0x60, 0x28,
  0x40, 0x15, 0xa3, 0xeb, 0xc5, 0x02, 0xdd, 0x5e, 0xf1, 0x12, 0x44, 0x09,
  0x55, 0x0b, 0x3c, 0xe6, 0x1b, 0x4c, 0xd2, 0xe1, 0x04, 0xd6, 0xf7, 0xe4,
  0x12, 0xd7, 0xd5, 0x03, 0xf4, 0xf2, 0x0d, 0x0d, 0x52, 0x06, 0xb6, 0x09,
  0xeb, 0x02, 0xfd, 0x13, 0xb2, 0x57, 0xeb, 0xb9, 0x0d, 0xd2, 0x10, 0xe8,
  0xae, 0x09, 0xf2, 0x0a, 0xf8, 0xe5, 0xef, 0x43, 0xce, 0x1e, 0x34, 0xe4,
  0xde, 0x01, 0x2d, 0xe6, 0xcf, 0x64, 0x2b, 0x5d, 0x2f, 0x07, 0xda, 0x00,
  0x27, 0x5e, 0x21, 0xe0, 0xa6, 0x54, 0x3a, 0x47, 0xaf, 0x51, 0xee, 0xd1,
  0x44, 0x32, 0xfc, 0xc0, 0xda, 0xf8, 0x49, 0xd2, 0xff, 0x5f, 0xaf, 0x51,
  0x4f, 0xfc, 0xcf, 0xb4, 0xee, 0x39, 0xe6, 0xdf, 0xb6, 0x3d, 0xf6, 0x03,
  0x47, 0x0b, 0x12, 0xef, 0xbd, 0x27, 0x1e, 0x35, 0xcc, 0xc5, 0xfb, 0xca,
  0xb3, 0x16, 0xd3, 0x03, 0xf6, 0xa4, 0xbf, 0x4c, 0x1a, 0xcf, 0xec, 0xf6,
  0xdf, 0x25, 0xbd, 0xec, 0xfc, 0xbb, 0xf4, 0xeb, 0xfa, 0xc1, 0x19, 0x40,
  0x2f, 0xb0, 0xd5, 0xd2, 0x1f, 0xdd, 0x00, 0x60, 0xde, 0xa3, 0xe5, 0x40,
  0x1f, 0x0b, 0xeb, 0xd9, 0xc5, 0x18, 0xf4, 0xbc, 0x3d, 0x23, 0x16, 0x1f,
  0x0d, 0x2b, 0x19, 0xec, 0x08, 0x25, 0xde, 0xec, 0x23, 0xfe, 0x11, 0x0c,
  0x03, 0xfe, 0x1c, 0xe6, 0xfc, 0xe6, 0xe5, 0xa5, 0x30, 0x2d, 0xa2, 0x04,
  0x0c, 0xf8, 0x01, 0x04, 0xf9, 0x30, 0xf6, 0xf2, 0x36, 0x03, 0xea, 0x12,
  0xa6, 0x36, 0x5a, 0x49, 0xef, 0x09, 0x13, 0x46, 0x47, 0xc5, 0x50, 0xe9,
  0x1e, 0xf8, 0xfc, 0xf6, 0xf3, 0xfa, 0x53, 0xd5, 0xca, 0x0c, 0x16, 0xb4,
  0x27, 0x4d, 0x1e, 0xcb, 0x20, 0x38, 0x17, 0xea, 0x50, 0x14, 0x20, 0x11,
  0x12, 0x1e, 0x41, 0x04, 0x89, 0x4b, 0x00, 0x3e, 0x2f, 0x2f, 0x87, 0x20,
  0x4f, 0x2e, 0xf7, 0x29, 0xec, 0x22, 0x1a, 0x3f, 0x00, 0x50, 0x24, 0x20,
  0x27, 0xd1, 0xd2, 0xd7, 0xc8, 0x57, 0x05, 0x33, 0xaa, 0x1e, 0xfb, 0x0d,
  0x20, 0x03, 0x05, 0xf3, 0x07, 0xc8, 0x26, 0xf4, 0x17, 0xd2, 0xd4, 0x28,
  0x14, 0xe1, 0x22, 0x24, 0x39, 0x14, 0x64, 0x12, 0xfd, 0x3e, 0x5b, 0xf1,
  0x70, 0xfe, 0x20, 0x4c, 0xf4, 0x29, 0x16, 0x44, 0x19, 0xda, 0xef, 0x0b,
  0x3d, 0xff, 0xa7, 0x0c, 0xda, 0x23, 0x19, 0xd2, 0xe9, 0xd8, 0xb3, 0x1a,
  0x62, 0x14, 0x0c, 0xf7, 0x1a, 0xdb, 0x01, 0xec, 0x20, 0x09, 0x21, 0xdc,
  0xc0, 0xfe, 0xbc, 0x2c, 0x2f, 0x94, 0x11, 0x23, 0x0a, 0xc6, 0xe1, 0xca,
  0x0d, 0x0c, 0x07, 0x37, 0xf3, 0xe6, 0xdc, 0x28, 0xe3, 0x2a, 0xf3, 0x1e,
  0x6c, 0x0f, 0xd7, 0xed, 0xe0, 0x34, 0xd7, 0xb2, 0x57, 0x3f, 0x18, 0xfc,
  0x1a, 0xc1, 0x18, 0xc6, 0x2a, 0xf8, 0xe4, 0xc3, 0x00, 0x37, 0xf6, 0xdc,
  0x3f, 0x35, 0xa7, 0xd4, 0xe1, 0x28, 0xb5, 0x57, 0xdc, 0xc9, 0x12, 0x34,
  0xb4, 0x17, 0xda, 0x24, 0xcd, 0xe1, 0x0f, 0xb5, 0x00, 0xc9, 0xf2, 0xf5,
  0xd1, 0x08, 0xfe, 0xdf, 0x1b, 0x31, 0x35, 0xd2, 0x02, 0xcc, 0x21, 0xba,
  0xf3, 0x2c, 0xfe, 0x3a, 0xef, 0x26, 0x2f, 0xc8, 0xe1, 0x1d, 0x29, 0x09,
  0xf1, 0x1c, 0xe7, 0x01, 0xfa, 0xed, 0xc1, 0x9b, 0x20, 0x01, 0x1f, 0xaf,
  0x51, 0x1d, 0x1a, 0xf1, 0xd6, 0x13, 0xc0, 0x1d, 0x32, 0x0e, 0x04, 0x12,
  0xde, 0x10, 0xdc, 0x1b, 0xf2, 0xee, 0xd2, 0x11, 0x14, 0x0f, 0x03, 0xbd,
  0xfd, 0xf9, 0x2a, 0xfc, 0x13, 0xfc, 0x4a, 0xc8, 0xf1, 0x0b, 0x30, 0x28,
  0xd6, 0xf5, 0x03, 0x18, 0x1a, 0xf7, 0x10, 0xdf, 0xfd, 0x02, 0xfe, 0x18,
  0xd1, 0x03, 0xfe, 0xaf, 0x3e, 0x10, 0xc0, 0xac, 0x3c, 0x9a, 0x3d, 0xe1,
  0xe9, 0x61, 0x15, 0x14, 0x16, 0x0a, 0x0b, 0xd0, 0x4b, 0xe0, 0x0a, 0xac,
  0x46, 0x38, 0x5c, 0xf0, 0xea, 0x47, 0xfa, 0xdb, 0x42, 0xc0, 0xeb, 0x23,
  0xdf, 0xfa, 0xff, 0x0f, 0xdf, 0x11, 0xf4, 0x39, 0xeb, 0xec, 0xfd, 0xe8,
  0x26, 0x26, 0xf4, 0xab, 0x1d, 0xbe, 0x49, 0x31, 0xf6, 0x5a, 0xcb, 0xcb,
  0x24, 0xe4, 0xe1, 0x9e, 0x36, 0xf0, 0xf5, 0x2c, 0x34, 0x14, 0xa5, 0x0f,
  0x16, 0x2a, 0x21, 0x11, 0xd6, 0xfd, 0xc7, 0x06, 0x44, 0xb5, 0xd1, 0x11,
  0xe2, 0x09, 0xe6, 0xf6, 0x17, 0x3c, 0x51, 0xfd, 0x59, 0xec, 0xe5, 0xba,
  0xea, 0xd9, 0x1a, 0xfd, 0x1f, 0xde, 0xe3, 0xdd, 0x26, 0x05, 0x12, 0xf5,
  0x82, 0xca, 0x06, 0x39, 0x1e, 0x32, 0x34, 0x9f, 0xc9, 0xc4, 0x03, 0x11,
  0xf6, 0xff, 0x4b, 0xfa, 0x0b, 0xcd, 0x1d, 0x41, 0x10, 0xec, 0x27, 0xf1,
  0x1f, 0xce, 0xd9, 0x05, 0xff, 0xbc, 0xd9, 0x10, 0xb7, 0x26, 0xec, 0x2c,
  0xd9, 0xbe, 0xf2, 0x28, 0xfa, 0x13, 0xa4, 0x20, 0x09, 0xc8, 0x1b, 0x2a,
  0xec, 0x03, 0x21, 0xd6, 0x33, 0xff, 0xd5, 0x18, 0x28, 0xca, 0x0b, 0x5e,
  0x4c, 0x13, 0x26, 0xd1, 0x07, 0xf7, 0xed, 0xb3, 0xe0, 0x13, 0x2b, 0x2b,
  0x08, 0xc1, 0x09, 0x02, 0xf1, 0x9d, 0x66, 0x36, 0xff, 0xfd, 0xdb, 0xdf,
  0xd9, 0xe7, 0x12, 0x33, 0x2e, 0xe4, 0xe6, 0xf6, 0x43, 0x4b, 0xff, 0x06,
  0x29, 0x02, 0xe4, 0xf7, 0xde, 0xe0, 0xe1, 0x36, 0x7f, 0x1f, 0x09, 0xf7,
  0x9c, 0x2c, 0x16, 0xb9, 0xf6, 0xee, 0xac, 0x12, 0x26, 0x16, 0xfb, 0x24,
  0x81, 0xf4, 0x7a, 0x15, 0xe4, 0x19, 0xaa, 0xb3, 0x25, 0x2c, 0xc9, 0xf0,
  0x05, 0xd5, 0xe5, 0xa9, 0x8d, 0x34, 0x4d, 0xe9, 0x31, 0x50, 0x55, 0xf4,
  0x3f, 0xff, 0x03, 0x4e, 0x35, 0x25, 0x11, 0xa4, 0xbe, 0x18, 0x08, 0xda,
  0x14, 0x48, 0xcf, 0xf0, 0xf8, 0xe7, 0xec, 0xf5, 0xc7, 0xfc, 0x24, 0xf2,
  0xd5, 0x18, 0x0f, 0x1c, 0xf4, 0xe7, 0xc4, 0x00, 0xff, 0x1b, 0x05, 0xfb,
  0xf4, 0xbd, 0xc2, 0x31, 0xc6, 0x1d, 0x55, 0x0a, 0xda, 0x4a, 0xa7, 0x49,
  0x0e, 0xbc, 0x2e, 0xbe, 0xf3, 0xe4, 0x2a, 0x36, 0xd2, 0xf2, 0x1c, 0x39,
  0xf3, 0x1a, 0xa3, 0xd1, 0x14, 0x5a, 0x47, 0xd7, 0x23, 0x04, 0xf4, 0x13,
  0x04, 0x16, 0xed, 0x39, 0x26, 0xf4, 0x35, 0x0e, 0x0c, 0xf1, 0x37, 0x18,
  0x2e, 0xd2, 0x1d, 0x50, 0x15, 0x17, 0x5f, 0x03, 0x2d, 0x17, 0xfb, 0x20,
  0x6e, 0x02, 0x13, 0xbb, 0xcd, 0xf3, 0x1a, 0x28, 0xd1, 0xfa, 0xa8, 0xda,
  0x24, 0xb3, 0xb7, 0xf5, 0x1e, 0x1e, 0x5c, 0x43, 0xd3, 0xed, 0x41, 0xc8,
  0xf7, 0x07, 0xee, 0xd4, 0x35, 0xf2, 0x0d, 0xc7, 0xdd, 0xd9, 0x3c, 0xe4,
  0xfb, 0x0c, 0xa5, 0x1c, 0xb6, 0xdf, 0x1f, 0x25, 0x26, 0xec, 0xef, 0x0d,
  0xd9, 0xe6, 0xf5, 0x13, 0xcd, 0xed, 0x24, 0x2c, 0x32, 0xd7, 0xdb, 0xb6,
  0x08, 0x0d, 0x22, 0x5f, 0xd2, 0xe3, 0x5e, 0x00, 0xf8, 0x05, 0x50, 0x1c,
  0x45, 0x38, 0xde, 0x12, 0xea, 0x07, 0xf1, 0x1d, 0xf2, 0xfe, 0xff, 0x45,
  0x12, 0x0f, 0x1b, 0x5a, 0xef, 0x57, 0x51, 0xcb, 0x02, 0xa9, 0x06, 0xd5,
  0xf2, 0xe4, 0x66, 0x44, 0x14, 0xe9, 0xfc, 0x31, 0xd4, 0x30, 0xe8, 0xdd,
  0x1b, 0x29, 0x12, 0xff, 0x30, 0x19, 0x1a, 0x46, 0x2f, 0xcf, 0x00, 0x22,
  0xdf, 0x40, 0x07, 0x05, 0x3c, 0xb4, 0x3e, 0xe1, 0x34, 0xcc, 0x05, 0x45,
  0xd1, 0xe4, 0xbd, 0x02, 0x25, 0xf0, 0xcb, 0x1c, 0xfd, 0xe4, 0x1c, 0xfe,
  0xd5, 0xf4, 0xf4, 0x07, 0x2e, 0x1c, 0xe0, 0x3e, 0x3d, 0x5d, 0x06, 0xe2,
  0xdc, 0x33, 0x5b, 0xe2, 0xef, 0x1d, 0x12, 0xc5, 0xe5, 0xe0, 0xad, 0x4f,
  0x60, 0x1d, 0xbe, 0xf3, 0x4a, 0x30, 0x0c, 0x12, 0xf0, 0xd7, 0x56, 0x1c,
  0x31, 0xec, 0x42, 0xe5, 0x35, 0xcb, 0xcc, 0xfe, 0x3d, 0x2e, 0xfb, 0xd2,
  0xf7, 0xfb, 0xc0, 0xfa, 0xd3, 0xe1, 0x2a, 0xdc, 0x36, 0x4e, 0x1d, 0x1b,
  0x38, 0xdc, 0xea, 0xe6, 0xa0, 0xc2, 0xfc, 0xd4, 0xfa, 0x16, 0xee, 0xdb,
  0xd2, 0x04, 0x46, 0xc1, 0x02, 0x05, 0xaa, 0x45, 0xf8, 0xf8, 0xef, 0x13,
  0x28, 0x15, 0xd5, 0x1f, 0x0d, 0xb5, 0xe3, 0x01, 0x2f, 0xa7, 0xeb, 0x10,
  0x05, 0x45, 0xf7, 0xee, 0x47, 0xe3, 0x2b, 0xe9, 0x33, 0x0c, 0x27, 0x30,
  0xd3, 0xd0, 0xf5, 0x59, 0x01, 0xeb, 0x4a, 0x20, 0x43, 0xbe, 0xb8, 0x32,
  0xef, 0x26, 0xdb, 0x31, 0xfa, 0x0f, 0x1b, 0x32, 0x3b, 0x10, 0x11, 0xea,
  0xe1, 0x3a, 0x37, 0x21, 0xff, 0x09, 0x47, 0xa1, 0xe0, 0xfc, 0xee, 0xf2,
  0xab, 0x2c, 0x50, 0xd7, 0x9e, 0xea, 0xcd, 0xe6, 0x32, 0x21, 0x30, 0xfb,
  0xa6, 0xf8, 0x02, 0xba, 0xda, 0xed, 0xce, 0x42, 0xf2, 0x0d, 0xc8, 0xd6,
  0xc3, 0xfc, 0xd3, 0x1e, 0x23, 0x09, 0x3b, 0xda, 0x2f, 0x2b, 0xe8, 0x03,
  0x0c, 0xb8, 0xda, 0x50, 0xf7, 0x0b, 0x04, 0x3a, 0x12, 0xfa, 0x12, 0xa3,
  0xb0, 0x28, 0xed, 0x1c, 0xff, 0xf6, 0x3b, 0xc8, 0xeb, 0xb6, 0x51, 0x0c,
  0xe0, 0x06, 0xcd, 0xff, 0xdd, 0xda, 0xe1, 0xe5, 0xe5, 0xfc, 0xcf, 0x24,
  0x08, 0x0e, 0xd9, 0xcd, 0x12, 0x34, 0x3c, 0xd2, 0x09, 0xe5, 0x2c, 0x0c,
  0x05, 0x18, 0x4f, 0xab, 0x0e, 0xe3, 0xd8, 0xf8, 0x24, 0xef, 0xda, 0xe4,
  0xda, 0x15, 0x31, 0x14, 0xef, 0xf0, 0x3f, 0x21, 0x58, 0x29, 0xd1, 0x07,
  0xd0, 0x4b, 0x14, 0xf1, 0x2a, 0x19, 0x14, 0x0a, 0xce, 0x2d, 0xbf, 0x0d,
  0x07, 0x48, 0x3e, 0x2e, 0x03, 0x0d, 0xf0, 0xdd, 0x24, 0x50, 0x4a, 0xe3,
  0x1f, 0xe2, 0xe2, 0x22, 0x01, 0xc0, 0x3e, 0x3a, 0xeb, 0x40, 0x32, 0xfe,
  0x66, 0x04, 0xf5, 0x51, 0x52, 0xcb, 0xd7, 0x02, 0x02, 0x0c, 0x16, 0xc2,
  0x0d, 0x1a, 0x0a, 0xce, 0x37, 0xfb, 0x34, 0x0f, 0x20, 0x1a, 0x1b, 0x1c,
  0x10, 0xfe, 0x0f, 0x15, 0x0a, 0xfe, 0xcf, 0xfd, 0x0c, 0xd9, 0xd6, 0x3a,
  0x41, 0x41, 0x0f, 0x23, 0xa2, 0x3b, 0xe5, 0xdb, 0xbd, 0x17, 0x06, 0xef,
  0x88, 0xba, 0xe0, 0xf7, 0xec, 0x3d, 0x26, 0x2f, 0x2b, 0x0a, 0x18, 0x11,
  0xba, 0x01, 0x31, 0xc2, 0xfc, 0x3b, 0x2d, 0x9e, 0xd5, 0xb2, 0xee, 0x1d,
  0xd4, 0xf9, 0x0d, 0xf6, 0xc1, 0xd6, 0xba, 0xeb, 0x27, 0xf1, 0x1e, 0x04,
  0xf7, 0xf7, 0x28, 0x03, 0x1f, 0xcf, 0xdd, 0xc7, 0xfc, 0x55, 0xaa, 0xe1,
  0x17, 0x11, 0x39, 0x4d, 0x32, 0xfa, 0xe8, 0x3c, 0xf6, 0x0a, 0x59, 0xe8,
  0x0d, 0xd1, 0xdf, 0xf5, 0xf8, 0xeb, 0x46, 0xf4, 0x3d, 0xc6, 0x2d, 0x06,
  0xe4, 0x49, 0xa5, 0xd2, 0x11, 0xf5, 0xf3, 0x0c, 0xe8, 0x45, 0x1b, 0xa9,
  0xde, 0xf2, 0xff, 0xb1, 0xf3, 0x26, 0xe6, 0xef, 0x06, 0xd0, 0xd8, 0xf2,
  0xf9, 0x01, 0x03, 0xff, 0x44, 0x35, 0xd9, 0xc5, 0x0d, 0xf7, 0x18, 0x1e,
  0x1c, 0x28, 0x04, 0xe7, 0xe8, 0x40, 0x51, 0xd3, 0x25, 0xe9, 0x45, 0xa4,
  0x49, 0xe8, 0x3e, 0x01, 0x03, 0x14, 0x48, 0x25, 0x2b, 0xf1, 0x3e, 0x52,
  0x9f, 0xfc, 0x4f, 0xdc, 0xf6, 0xcf, 0x28, 0xfd, 0xfd, 0xa6, 0x13, 0x07,
  0x37, 0xe8, 0x19, 0xce, 0x32, 0x03, 0xd5, 0xba, 0x1f, 0xc4, 0xbe, 0xde,
  0xec, 0x15, 0xd9, 0xdb, 0xed, 0xe7, 0xe4, 0xc3, 0xe6, 0x4f, 0xea, 0x0d,
  0x38, 0xea, 0xb2, 0xd3, 0x1b, 0x0d, 0xac, 0x51, 0x1d, 0xd2, 0x27, 0xd8,
  0x52, 0x4d, 0xd5, 0x0b, 0x07, 0x1e, 0xd8, 0x62, 0x01, 0x13, 0x3f, 0xb8,
  0x2e, 0x4c, 0xd9, 0x4b, 0xc8, 0x9c, 0xea, 0xcb, 0xcc, 0x07, 0x56, 0x30,
  0x1b, 0xf7, 0xea, 0x29, 0xd8, 0x50, 0xff, 0xf1, 0x03, 0x0b, 0xd7, 0x45,
  0xec, 0x51, 0xcd, 0xeb, 0x27, 0xfd, 0xfe, 0x01, 0x02, 0xfa, 0xc0, 0xb8,
  0xfc, 0xd7, 0x23, 0x10, 0xea, 0x20, 0x23, 0x07, 0xb9, 0xf9, 0xf7, 0xd3,
  0xfa, 0xca, 0x0a, 0xea, 0xdd, 0xe0, 0x0f, 0x25, 0xdb, 0xcc, 0x3a, 0x20,
  0x4f, 0xda, 0x1b, 0x34, 0x1d, 0xdb, 0x9d, 0xdf, 0x2f, 0x30, 0xec, 0xf7,
  0xf0, 0xd4, 0xf9, 0xfd, 0xc1, 0x00, 0xd1, 0xd4, 0x20, 0xd1, 0x41, 0x11,
  0x2c, 0xde, 0x25, 0x07, 0xfe, 0x28, 0xb1, 0xf2, 0xfa, 0xf3, 0xe4, 0x13,
  0x40, 0xdd, 0xb2, 0xee, 0xd9, 0x2d, 0x23, 0xe0, 0xdf, 0x27, 0x65, 0x22,
  0x08, 0x58, 0x10, 0x0c, 0xe3, 0xdd, 0xb1, 0x27, 0x43, 0x2c, 0x2a, 0x13,
  0xdd, 0xbd, 0xe4, 0x5e, 0x26, 0x28, 0xc1, 0x33, 0xa0, 0x04, 0xfe, 0x20,
  0x2b, 0x44, 0xb5, 0xcf, 0xf5, 0xe1, 0x21, 0x3a, 0xda, 0xef, 0x1b, 0x1b,
  0xda, 0x32, 0xdf, 0xf3, 0xff, 0x04, 0x04, 0x19, 0xed, 0xe2, 0xc2, 0x22,
  0x30, 0xf4, 0xbe, 0xd3, 0x9d, 0x0c, 0xdc, 0xfa, 0xe1, 0xf5, 0x38, 0x23,
  0xf0, 0xed, 0xe9, 0x22, 0x4c, 0x8b, 0x2c, 0x04, 0xfa, 0x63, 0xf6, 0xab,
  0x71, 0x15, 0x34, 0xc6, 0x09, 0x49, 0xb7, 0x2a, 0x75, 0x59, 0x96, 0xc0,
  0xf0, 0xd9, 0xe3, 0xcb, 0xfe, 0xea, 0x51, 0x0b, 0x47, 0xdf, 0x0a, 0xb9,
  0x0b, 0x15, 0x75, 0x22, 0xc2, 0xda, 0xa0, 0x24, 0xed, 0xea, 0xc5, 0x03,
  0xa2, 0x0c, 0x46, 0xc9, 0xe4, 0x5e, 0xae, 0x16, 0x3b, 0x55, 0x9e, 0xa5,
  0xf3, 0xb7, 0xf8, 0x9a, 0xb9, 0xf5, 0x3d, 0xdb, 0x12, 0xfd, 0x9e, 0xca,
  0x42, 0x4b, 0x05, 0xfe, 0xf4, 0xd8, 0xe9, 0x13, 0xd9, 0xb6, 0xd7, 0xeb,
  0xf9, 0x30, 0x09, 0x48, 0x03, 0xe7, 0xe5, 0xc7, 0x0d, 0x5a, 0x1c, 0xe8,
  0xdd, 0xcc, 0xee, 0x14, 0x16, 0xe5, 0xde, 0x1d, 0x59, 0x08, 0x2b, 0xed,
  0xfc, 0x2a, 0xf6, 0x30, 0x40, 0x0d, 0xe5, 0xa7, 0x13, 0xe3, 0x26, 0x08,
  0xd2, 0xcb, 0x58, 0xf3, 0x1e, 0x4c, 0x0e, 0x0a, 0x1f, 0xe7, 0x59, 0xaa,
  0x06, 0xde, 0x04, 0x15, 0xf2, 0x9d, 0xf6, 0xb1, 0x53, 0x9d, 0x1f, 0x15,
  0x03, 0x25, 0x08, 0xeb, 0x15, 0xd5, 0x37, 0xf4, 0x09, 0x31, 0x6a, 0x35,
  0xe3, 0xe0, 0xbb, 0x43, 0x08, 0x45, 0xe4, 0x45, 0xf9, 0x26, 0x3b, 0x01,
  0x02, 0x55, 0x41, 0x01, 0xe6, 0x2b, 0x12, 0x24, 0xf0, 0x3b, 0x14, 0xd0,
  0x17, 0xf0, 0xee, 0xfa, 0xa9, 0x60, 0x02, 0xcc, 0xf5, 0x4f, 0xa9, 0x14,
  0x29, 0xbe, 0x13, 0xb1, 0xcc, 0xea, 0x52, 0x1d, 0x0d, 0xd6, 0x05, 0x3c,
  0x3a, 0xed, 0xa4, 0xf8, 0xe7, 0x9e, 0x3f, 0x07, 0xdb, 0x2a, 0xdc, 0x17,
  0xc9, 0xcd, 0xd7, 0x45, 0x37, 0x15, 0xd2, 0x15, 0xcb, 0x31, 0x3e, 0x1c,
  0x5c, 0xcd, 0x10, 0x52, 0xbe, 0xbb, 0xf8, 0x0f, 0xb4, 0xf1, 0x3d, 0x05,
  0x42, 0x19, 0xca, 0xd0, 0x02, 0x89, 0x04, 0x1f, 0xf1, 0xc7, 0x06, 0x05,
  0x2f, 0xe6, 0x1a, 0xdc, 0xcf, 0x15, 0x1c, 0x58, 0xfa, 0xcf, 0xdf, 0xf2,
  0xf0, 0xfe, 0x4a, 0x3d, 0xd0, 0x35, 0xde, 0x08, 0x20, 0xe7, 0xff, 0x21,
  0xfa, 0x23, 0xf0, 0x29, 0x4e, 0xf0, 0xcf, 0x19, 0x0a, 0x26, 0x3e, 0x31,
  0x04, 0xe9, 0xd1, 0x5d, 0xe7, 0xdd, 0xcf, 0x2b, 0x14, 0x17, 0xe3, 0xa8,
  0xb0, 0xd8, 0x21, 0x1a, 0xd0, 0xfa, 0xff, 0xff, 0xd4, 0xfa, 0xff, 0xff,
  0x0a, 0xfb, 0xff, 0xff, 0x04, 0x00, 0x00, 0x00, 0xee, 0x02, 0x00, 0x00,
  0x18, 0x15, 0x5b, 0x08, 0xcf, 0xf5, 0x20, 0xca, 0x09, 0x0b, 0xcc, 0x17,
  0x17, 0x07, 0x18, 0xf4, 0xed, 0xea, 0x08, 0xf7, 0x27, 0xd5, 0xc6, 0xde,
  0x1c, 0x07, 0xd9, 0x31, 0x3a, 0x41, 0x19, 0xe2, 0xda, 0x25, 0x1f, 0x16,
  0x3c, 0xd1, 0xbe, 0x2f, 0x0d, 0xf0, 0x29, 0x05, 0xd1, 0x20, 0xef, 0xe0,
  0x02, 0xca, 0xc8, 0x0a, 0x30, 0x00, 0xd2, 0xe7, 0xc8, 0x0b, 0xd0, 0x34,
  0x19, 0xde, 0x01, 0x30, 0xf8, 0xfb, 0x2a, 0xe4, 0x44, 0xcd, 0x02, 0x3d,
  0xf9, 0xb6, 0xd5, 0x15, 0x03, 0xef, 0xdd, 0xd9, 0x0f, 0xda, 0xd2, 0xed,
  0x30, 0xcd, 0xe7, 0x1b, 0x10, 0xd0, 0xf1, 0x1c, 0xde, 0x2b, 0xfd, 0xf9,
  0x0e, 0x38, 0x56, 0x1a, 0xd3, 0x09, 0xde, 0xfd, 0xf9, 0x7f, 0xca, 0x07,
  0xd6, 0xf2, 0xcc, 0xeb, 0xe8, 0x0a, 0xe8, 0xbc, 0xe6, 0x12, 0x46, 0xe5,
  0xef, 0xf9, 0xb4, 0xf4, 0x2b, 0x3c, 0x59, 0x21, 0x3e, 0xc7, 0x9b, 0xfb,
  0x26, 0x2d, 0x19, 0x25, 0x2b, 0x23, 0x5a, 0x30, 0xe0, 0xde, 0xf0, 0xe0,
  0x34, 0x67, 0x1b, 0xe0, 0xfc, 0x14, 0xff, 0xea, 0x1f, 0x3c, 0xd8, 0x43,
  0xef, 0xec, 0xb3, 0xe7, 0x01, 0x03, 0x00, 0x3a, 0x47, 0xe9, 0xc3, 0xe3,
  0x0d, 0x11, 0xd4, 0xc3, 0xd0, 0x0a, 0xd7, 0x18, 0xd0, 0x1c, 0x44, 0xef,
  0xe9, 0xf9, 0xe2, 0x0c, 0x04, 0x02, 0xfc, 0xda, 0x19, 0xc1, 0x08, 0x09,
  0x21, 0xde, 0x13, 0xb3, 0x25, 0xa7, 0xe7, 0xf3, 0xfa, 0x0e, 0xe2, 0xc5,
  0x25, 0x1a, 0xd9, 0x00, 0x01, 0xe2, 0x2a, 0xf9, 0xe0, 0x4d, 0x1a, 0x29,
  0x29, 0x35, 0xce, 0xca, 0x23, 0xb5, 0x12, 0x10, 0xce, 0xe4, 0x26, 0xf8,
  0x62, 0xee, 0x0a, 0x0d, 0x2b, 0xe6, 0x17, 0x44, 0x2c, 0xc0, 0x3f, 0xf0,
  0xd5, 0xd6, 0xc1, 0xef, 0x35, 0x67, 0x2b, 0x01, 0xd6, 0x44, 0xe7, 0xa9,
  0x15, 0x19, 0x40, 0x17, 0x05, 0xe1, 0xe5, 0xd3, 0x0f, 0xb3, 0x26, 0xda,
  0x48, 0x07, 0xe3, 0xee, 0x16, 0x05, 0xfb, 0xf8, 0x0c, 0x28, 0xb3, 0xf1,
  0xf8, 0xed, 0xd1, 0x15, 0xce, 0xdd, 0x01, 0xd5, 0x04, 0x13, 0x00, 0xc8,
  0x26, 0xf4, 0x3e, 0x15, 0x1d, 0x35, 0xf9, 0xe9, 0x25, 0xfa, 0x25, 0x0a,
  0x25, 0x07, 0x08, 0xb0, 0xe2, 0x33, 0x25, 0x1a, 0xef, 0x64, 0x1a, 0xc9,
  0xf7, 0xd0, 0x08, 0x14, 0x7f, 0xbc, 0x1c, 0xb6, 0x28, 0x44, 0x20, 0xd1,
  0x08, 0x28, 0xcd, 0xed, 0xf4, 0x06, 0x32, 0x43, 0x4d, 0xf4, 0xe4, 0x9e,
  0xee, 0x02, 0xc4, 0xda, 0xf6, 0xec, 0xe1, 0xd6, 0xe7, 0xf6, 0xf4, 0xfb,
  0x7a, 0xd6, 0x0f, 0xdf, 0x0d, 0xfe, 0xf2, 0x01, 0xe8, 0xef, 0xe6, 0x3e,
  0x0c, 0x55, 0xf1, 0x25, 0xc4, 0xdb, 0x0f, 0xf3, 0xd2, 0xf1, 0x15, 0xe8,
  0xfc, 0xd4, 0x1a, 0x15, 0xe9, 0x4f, 0x20, 0x26, 0xfe, 0xc3, 0xfc, 0xc5,
  0xca, 0xe1, 0xe5, 0x02, 0xf0, 0xe5, 0x2a, 0xdf, 0x28, 0x12, 0xf7, 0xd1,
  0xfa, 0xb8, 0x42, 0x41, 0xc9, 0x20, 0x4a, 0xe4, 0xfa, 0xc2, 0xbc, 0x3d,
  0x23, 0xfc, 0x30, 0x43, 0x3c, 0xe8, 0x11, 0xe8, 0x0e, 0xb6, 0x23, 0xb3,
  0xa9, 0xce, 0xe4, 0x06, 0x19, 0x36, 0x13, 0x25, 0xd0, 0xb7, 0x16, 0x1d,
  0xf4, 0xdc, 0xee, 0x54, 0x35, 0xc5, 0xf1, 0x22, 0xac, 0x15, 0xe3, 0xeb,
  0xf9, 0x07, 0xfb, 0x0e, 0xea, 0x17, 0xbf, 0xe2, 0x05, 0x0c, 0x1f, 0x02,
  0xe3, 0xed, 0xc7, 0xd7, 0x5a, 0xd4, 0x20, 0xb2, 0xd3, 0xd3, 0x7b, 0x2e,
  0x34, 0xdf, 0x34, 0x08, 0x28, 0xd9, 0x12, 0x08, 0x2c, 0xfd, 0xed, 0x10,
  0x23, 0x19, 0x3b, 0x48, 0x03, 0xae, 0x4d, 0x09, 0xc9, 0x1f, 0xfa, 0xff,
  0xd8, 0xb4, 0x2b, 0xba, 0x1f, 0xc8, 0x1f, 0x07, 0xd0, 0xd2, 0xf0, 0xc7,
  0xa8, 0x22, 0x20, 0xb7, 0xf6, 0xc4, 0xf1, 0x13, 0xee, 0x10, 0x17, 0xfe,
  0xd5, 0x0f, 0xa8, 0xbe, 0x26, 0xfa, 0xe4, 0x0f, 0xf0, 0xc0, 0x01, 0x56,
  0xf8, 0x03, 0xfa, 0xe7, 0xe2, 0xb6, 0x2c, 0x03, 0xf5, 0x2e, 0xeb, 0xe9,
  0xf5, 0x5a, 0x29, 0x15, 0x21, 0xb2, 0x09, 0xf3, 0xf1, 0x06, 0x37, 0x56,
  0x0c, 0x1f, 0x08, 0x71, 0x17, 0x00, 0x26, 0xe0, 0xd7, 0x0f, 0xf6, 0x40,
  0xe6, 0x17, 0xb5, 0xdd, 0x22, 0x54, 0xd6, 0xb9, 0x1b, 0xd0, 0xe6, 0xd2,
  0x1f, 0x10, 0x32, 0x29, 0xf6, 0xcb, 0x25, 0xb9, 0x01, 0x6a, 0x13, 0x20,
  0xe6, 0x12, 0x24, 0xf0, 0x01, 0xec, 0x3b, 0x79, 0x30, 0xc8, 0xd9, 0x51,
  0xdd, 0xae, 0x3e, 0xad, 0xf6, 0x0a, 0xd5, 0xfb, 0xcf, 0x34, 0xcb, 0x59,
  0xf4, 0xc1, 0xcb, 0xe2, 0xbf, 0xb0, 0x2e, 0x27, 0x1f, 0xb9, 0xf5, 0xce,
  0x00, 0x00, 0x00, 0xfa, 0x13, 0x06, 0xf5, 0xb1, 0x0b, 0xd2, 0x0f, 0x1d,
  0x0d, 0x35, 0xe4, 0x21, 0x28, 0xb9, 0xd7, 0x2f, 0x4d, 0x16, 0x33, 0x4c,
  0x55, 0x54, 0xfe, 0xb8, 0x3f, 0xee, 0x3e, 0xff, 0xfa, 0xff, 0x01, 0x32,
  0x2f, 0xf1, 0xea, 0xc6, 0xdc, 0x29, 0x74, 0xd0, 0x46, 0x05, 0x00, 0x2a,
  0x41, 0xf3, 0x16, 0x0f, 0x00, 0x0e, 0xd1, 0x42, 0x33, 0x3a, 0x00, 0xe1,
  0xd2, 0x35, 0xe3, 0xda, 0xa6, 0xd3, 0xd9, 0xbf, 0x10, 0x2a, 0xd3, 0xf8,
  0x41, 0xf4, 0x2d, 0xc9, 0xe8, 0x1a, 0x05, 0x00, 0xd5, 0x16, 0xe1, 0x02,
  0x14, 0xe1, 0x04, 0xe7, 0xcb, 0xad, 0xc7, 0x02, 0xd0, 0x34, 0xdd, 0x1f,
  0xf6, 0xf1, 0xad, 0xca, 0xef, 0x20, 0x07, 0x46, 0x15, 0xca, 0xd6, 0xb3,
  0x1a, 0x02, 0x0a, 0xeb, 0x2d, 0x0b, 0xff, 0x1c, 0xc9, 0x4f, 0xbd, 0x2a,
  0x53, 0xff, 0xb2, 0xdc, 0xd6, 0x07, 0x00, 0x00, 0xd4, 0xfd, 0xff, 0xff,
  0x0a, 0xfe, 0xff, 0xff, 0x04, 0x00, 0x00, 0x00, 0xc8, 0x00, 0x00, 0x00,
  0x00, 0x00, 0x00, 0x00, 0x7c, 0x04, 0x00, 0x00, 0xc5, 0x0b, 0x00, 0x00,
  0x52, 0x03, 0x00, 0x00, 0x89, 0x05, 0x00, 0x00, 0xea, 0x0f, 0x00, 0x00,
  0x2b, 0x03, 0x00, 0x00, 0x90, 0x01, 0x00, 0x00, 0x2b, 0xfe, 0xff, 0xff,
  0x9b, 0x11, 0x00, 0x00, 0xae, 0x0b, 0x00, 0x00, 0xc3, 0xfa, 0xff, 0xff,
  0x66, 0x00, 0x00, 0x00, 0x93, 0xfb, 0xff, 0xff, 0x00, 0x00, 0x00, 0x00,
  0xab, 0xfc, 0xff, 0xff, 0xeb, 0x15, 0x00, 0x00, 0xef, 0xf3, 0xff, 0xff,
  0x5d, 0x1a, 0x00, 0x00, 0x61, 0x00, 0x00, 0x00, 0x61, 0x06, 0x00, 0x00,
  0xd2, 0x07, 0x00, 0x00, 0x30, 0x0b, 0x00, 0x00, 0x00, 0x00, 0x00, 0x00,
  0x22, 0xfc, 0xff, 0xff, 0xb0, 0xfb, 0xff, 0xff, 0x03, 0x0c, 0x00, 0x00,
  0x59, 0xff, 0xff, 0xff, 0x7e, 0x03, 0x00, 0x00, 0xd3, 0x0b, 0x00, 0x00,
  0x13, 0x10, 0x00, 0x00, 0x55, 0x0a, 0x00, 0x00, 0x56, 0x10, 0x00, 0x00,
  0x00, 0x00, 0x00, 0x00, 0xd3, 0xfd, 0xff, 0xff, 0xc1, 0x04, 0x00, 0x00,
  0x46, 0xf8, 0xff, 0xff, 0x98, 0x03, 0x00, 0x00, 0xe4, 0x00, 0x00, 0x00,
  0x40, 0xff, 0xff, 0xff, 0x1b, 0xfc, 0xff, 0xff, 0x2d, 0xfc, 0xff, 0xff,
  0x44, 0xfb, 0xff, 0xff, 0x00, 0x00, 0x00, 0x00, 0x00, 0x00, 0x00, 0x00,
  0x81, 0x0e, 0x00, 0x00, 0x57, 0x10, 0x00, 0x00, 0x7f, 0xf9, 0xff, 0xff,
  0x93, 0x13, 0x00, 0x00, 0x99, 0x03, 0x00, 0x00, 0xde, 0xfe, 0xff, 0xff,
  0x04, 0x00, 0x00, 0x00, 0x3c, 0x00, 0x00, 0x00, 0x86, 0x01, 0x00, 0x00,
  0x9f, 0x0a, 0x00, 0x00, 0x60, 0x06, 0x00, 0x00, 0x51, 0xfe, 0xff, 0xff,
  0x1b, 0x03, 0x00, 0x00, 0x0e, 0xfe, 0xff, 0xff, 0xe2, 0x0a, 0x00, 0x00,
  0x50, 0xfc, 0xff, 0xff, 0xf1, 0xfe, 0xff, 0xff, 0x9c, 0x0b, 0x00, 0x00,
  0x00, 0x00, 0x00, 0x00, 0xd7, 0x0a, 0x00, 0x00, 0x67, 0x00, 0x00, 0x00,
  0xfe, 0x0a, 0x00, 0x00, 0x8e, 0xfd, 0xff, 0xff, 0x26, 0xff, 0xff, 0xff,
  0x04, 0x00, 0x00, 0x00, 0x1e, 0x00, 0x00, 0x00, 0x10, 0xfc, 0x44, 0x17,
  0x7f, 0x2d, 0xa6, 0x54, 0xb8, 0xbc, 0x5a, 0x11, 0x03, 0xb6, 0xc9, 0xf9,
  0x41, 0xcb, 0x38, 0x2d, 0xe8, 0x1c, 0x10, 0xdc, 0x13, 0xfc, 0xa1, 0xf1,
  0x3d, 0x31, 0x00, 0x00, 0x52, 0xff, 0xff, 0xff, 0x04, 0x00, 0x00, 0x00,
  0x08, 0x00, 0x00, 0x00, 0x3b, 0xff, 0xff, 0xff, 0xc5, 0x00, 0x00, 0x00,
  0x34, 0xff, 0xff, 0xff, 0x0f, 0x00, 0x00, 0x00, 0x54, 0x4f, 0x43, 0x4f,
  0x20, 0x43, 0x6f, 0x6e, 0x76, 0x65, 0x72, 0x74, 0x65, 0x64, 0x2e, 0x00,
  0x01, 0x00, 0x00, 0x00, 0x04, 0x00, 0x00, 0x00, 0x00, 0xf9, 0xff, 0xff,
  0x94, 0x01, 0x00, 0x00, 0x88, 0x01, 0x00, 0x00, 0x7c, 0x01, 0x00, 0x00,
  0x04, 0x00, 0x00, 0x00, 0x06, 0x00, 0x00, 0x00, 0x50, 0x01, 0x00, 0x00,
  0x04, 0x01, 0x00, 0x00, 0xbc, 0x00, 0x00, 0x00, 0x74, 0x00, 0x00, 0x00,
  0x38, 0x00, 0x00, 0x00, 0x04, 0x00, 0x00, 0x00, 0xd2, 0xfe, 0xff, 0xff,
  0x03, 0x00, 0x00, 0x00, 0x10, 0x00, 0x00, 0x00, 0x04, 0x00, 0x00, 0x00,
  0x01, 0x00, 0x00, 0x00, 0x0c, 0x00, 0x00, 0x00, 0x01, 0x00, 0x00, 0x00,
  0x00, 0x00, 0x00, 0x00, 0x00, 0x00, 0x0e, 0x00, 0x1a, 0x00, 0x08, 0x00,
  0x0c, 0x00, 0x10, 0x00, 0x07, 0x00, 0x14, 0x00, 0x0e, 0x00, 0x00, 0x00,
  0x00, 0x00, 0x00, 0x09, 0x01, 0x00, 0x00, 0x00, 0x24, 0x00, 0x00, 0x00,
  0x18, 0x00, 0x00, 0x00, 0x0c, 0x00, 0x00, 0x00, 0x00, 0x00, 0x06, 0x00,
  0x08, 0x00, 0x04, 0x00, 0x06, 0x00, 0x00, 0x00, 0x00, 0x00, 0x80, 0x3f,
  0x01, 0x00, 0x00, 0x00, 0x00, 0x00, 0x00, 0x00, 0x01, 0x00, 0x00, 0x00,
  0x08, 0x00, 0x00, 0x00, 0xca, 0xff, 0xff, 0xff, 0x00, 0x00, 0x00, 0x08,
  0x1c, 0x00, 0x00, 0x00, 0x10, 0x00, 0x00, 0x00, 0x08, 0x00, 0x00, 0x00,
  0x04, 0x00, 0x04, 0x00, 0x04, 0x00, 0x00, 0x00, 0x01, 0x00, 0x00, 0x00,
  0x08, 0x00, 0x00, 0x00, 0x03, 0x00, 0x00, 0x00, 0x07, 0x00, 0x00, 0x00,
  0x09, 0x00, 0x00, 0x00, 0x0a, 0x00, 0x00, 0x00, 0x00, 0x00, 0x0e, 0x00,
  0x14, 0x00, 0x00, 0x00, 0x08, 0x00, 0x0c, 0x00, 0x07, 0x00, 0x10, 0x00,
  0x0e, 0x00, 0x00, 0x00, 0x00, 0x00, 0x00, 0x08, 0x1c, 0x00, 0x00, 0x00,
  0x10, 0x00, 0x00, 0x00, 0x04, 0x00, 0x00, 0x00, 0xba, 0xff, 0xff, 0xff,
  0x00, 0x00, 0x00, 0x01, 0x01, 0x00, 0x00, 0x00, 0x07, 0x00, 0x00, 0x00,
  0x03, 0x00, 0x00, 0x00, 0x04, 0x00, 0x00, 0x00, 0x05, 0x00, 0x00, 0x00,
  0x06, 0x00, 0x00, 0x00, 0x00, 0x00, 0x0e, 0x00, 0x16, 0x00, 0x00, 0x00,
  0x08, 0x00, 0x0c, 0x00, 0x07, 0x00, 0x10, 0x00, 0x0e, 0x00, 0x00, 0x00,
  0x00, 0x00, 0x00, 0x08, 0x24, 0x00, 0x00, 0x00, 0x18, 0x00, 0x00, 0x00,
  0x0c, 0x00, 0x00, 0x00, 0x00, 0x00, 0x06, 0x00, 0x08, 0x00, 0x07, 0x00,
  0x06, 0x00, 0x00, 0x00, 0x00, 0x00, 0x00, 0x01, 0x01, 0x00, 0x00, 0x00,
  0x04, 0x00, 0x00, 0x00, 0x03, 0x00, 0x00, 0x00, 0x01, 0x00, 0x00, 0x00,
  0x02, 0x00, 0x00, 0x00, 0x03, 0x00, 0x00, 0x00, 0x00, 0x00, 0x0a, 0x00,
  0x10, 0x00, 0x04, 0x00, 0x08, 0x00, 0x0c, 0x00, 0x0a, 0x00, 0x00, 0x00,
  0x02, 0x00, 0x00, 0x00, 0x10, 0x00, 0x00, 0x00, 0x04, 0x00, 0x00, 0x00,
  0x01, 0x00, 0x00, 0x00, 0x01, 0x00, 0x00, 0x00, 0x01, 0x00, 0x00, 0x00,
  0x0b, 0x00, 0x00, 0x00, 0x01, 0x00, 0x00, 0x00, 0x0c, 0x00, 0x00, 0x00,
  0x01, 0x00, 0x00, 0x00, 0x0b, 0x00, 0x00, 0x00, 0x0d, 0x00, 0x00, 0x00,
  0xe4, 0x05, 0x00, 0x00, 0x48, 0x05, 0x00, 0x00, 0xa8, 0x04, 0x00, 0x00,
  0x34, 0x04, 0x00, 0x00, 0xb0, 0x03, 0x00, 0x00, 0x0c, 0x03, 0x00, 0x00,
  0x98, 0x02, 0x00, 0x00, 0x14, 0x02, 0x00, 0x00, 0x88, 0x01, 0x00, 0x00,
  0xe4, 0x00, 0x00, 0x00, 0x70, 0x00, 0x00, 0x00, 0x3c, 0x00, 0x00, 0x00,
  0x04, 0x00, 0x00, 0x00, 0xd8, 0xff, 0xff, 0xff, 0x18, 0x00, 0x00, 0x00,
  0x04, 0x00, 0x00, 0x00, 0x08, 0x00, 0x00, 0x00, 0x49, 0x64, 0x65, 0x6e,
  0x74, 0x69, 0x74, 0x79, 0x00, 0x00, 0x00, 0x00, 0x02, 0x00, 0x00, 0x00,
  0x01, 0x00, 0x00, 0x00, 0x02, 0x00, 0x00, 0x00, 0x0c, 0x00, 0x0c, 0x00,
  0x04, 0x00, 0x00, 0x00, 0x00, 0x00, 0x08, 0x00, 0x0c, 0x00, 0x00, 0x00,
  0x20, 0x00, 0x00, 0x00, 0x04, 0x00, 0x00, 0x00, 0x12, 0x00, 0x00, 0x00,
  0x64, 0x65, 0x6e, 0x73, 0x65, 0x5f, 0x44, 0x65, 0x6e, 0x73, 0x65, 0x31,
  0x5f, 0x69, 0x6e, 0x70, 0x75, 0x74, 0x00, 0x00, 0x02, 0x00, 0x00, 0x00,
  0x01, 0x00, 0x00, 0x00, 0x3c, 0x00, 0x00, 0x00, 0xc2, 0xfa, 0xff, 0xff,
  0x00, 0x00, 0x00, 0x02, 0x60, 0x00, 0x00, 0x00, 0x01, 0x00, 0x00, 0x00,
  0x2c, 0x00, 0x00, 0x00, 0x04, 0x00, 0x00, 0x00, 0xb4, 0xfa, 0xff, 0xff,
  0x18, 0x00, 0x00, 0x00, 0x04, 0x00, 0x00, 0x00, 0x01, 0x00, 0x00, 0x00,
  0x00, 0x00, 0x00, 0x00, 0x00, 0x00, 0x00, 0x00, 0x00, 0x00, 0x00, 0x00,
  0x01, 0x00, 0x00, 0x00, 0x8f, 0x68, 0xca, 0x38, 0x25, 0x00, 0x00, 0x00,
  0x73, 0x65, 0x71, 0x75, 0x65, 0x6e, 0x74, 0x69, 0x61, 0x6c, 0x5f, 0x31,
  0x2f, 0x64, 0x65, 0x6e, 0x73, 0x65, 0x5f, 0x44, 0x65, 0x6e, 0x73, 0x65,
  0x33, 0x2f, 0x4d, 0x61, 0x74, 0x4d, 0x75, 0x6c, 0x5f, 0x62, 0x69, 0x61,
  0x73, 0x00, 0x00, 0x00, 0x01, 0x00, 0x00, 0x00, 0x02, 0x00, 0x00, 0x00,
  0x32, 0xfb, 0xff, 0xff, 0x00, 0x00, 0x00, 0x09, 0x8c, 0x00, 0x00, 0x00,
  0x02, 0x00, 0x00, 0x00, 0x44, 0x00, 0x00, 0x00, 0x04, 0x00, 0x00, 0x00,
  0xbc, 0xfb, 0xff, 0xff, 0x30, 0x00, 0x00, 0x00, 0x24, 0x00, 0x00, 0x00,
  0x18, 0x00, 0x00, 0x00, 0x04, 0x00, 0x00, 0x00, 0x01, 0x00, 0x00, 0x00,
  0x00, 0x00, 0x00, 0x00, 0x00, 0x00, 0x00, 0x00, 0x00, 0x00, 0x00, 0x00,
  0x01, 0x00, 0x00, 0x00, 0x9c, 0xff, 0xc7, 0x3b, 0x01, 0x00, 0x00, 0x00,
  0x9d, 0x6f, 0x46, 0x3f, 0x01, 0x00, 0x00, 0x00, 0xb1, 0x69, 0x14, 0xbf,
  0x39, 0x00, 0x00, 0x00, 0x73, 0x65, 0x71, 0x75, 0x65, 0x6e, 0x74, 0x69,
  0x61, 0x6c, 0x5f, 0x31, 0x2f, 0x64, 0x65, 0x6e, 0x73, 0x65, 0x5f, 0x44,
  0x65, 0x6e, 0x73, 0x65, 0x33, 0x2f, 0x4d, 0x61, 0x74, 0x4d, 0x75, 0x6c,
  0x2f, 0x52, 0x65, 0x61, 0x64, 0x56, 0x61, 0x72, 0x69, 0x61, 0x62, 0x6c,
  0x65, 0x4f, 0x70, 0x2f, 0x74, 0x72, 0x61, 0x6e, 0x73, 0x70, 0x6f, 0x73,
  0x65, 0x00, 0x00, 0x00, 0x02, 0x00, 0x00, 0x00, 0x02, 0x00, 0x00, 0x00,
  0x0f, 0x00, 0x00, 0x00, 0xd2, 0xfb, 0xff, 0xff, 0x00, 0x00, 0x00, 0x09,
  0x74, 0x00, 0x00, 0x00, 0x0b, 0x00, 0x00, 0x00, 0x44, 0x00, 0x00, 0x00,
  0x04, 0x00, 0x00, 0x00, 0x5c, 0xfc, 0xff, 0xff, 0x30, 0x00, 0x00, 0x00,
  0x24, 0x00, 0x00, 0x00, 0x18, 0x00, 0x00, 0x00, 0x04, 0x00, 0x00, 0x00,
  0x01, 0x00, 0x00, 0x00, 0xe6, 0xff, 0xff, 0xff, 0xff, 0xff, 0xff, 0xff,
  0x00, 0x00, 0x00, 0x00, 0x01, 0x00, 0x00, 0x00, 0xaa, 0xab, 0xe3, 0x3c,
  0x01, 0x00, 0x00, 0x00, 0xd6, 0xcf, 0x87, 0x40, 0x01, 0x00, 0x00, 0x00,
  0x4f, 0xf0, 0x35, 0xc0, 0x21, 0x00, 0x00, 0x00, 0x73, 0x65, 0x71, 0x75,
  0x65, 0x6e, 0x74, 0x69, 0x61, 0x6c, 0x5f, 0x31, 0x2f, 0x64, 0x65, 0x6e,
  0x73, 0x65, 0x5f, 0x44, 0x65, 0x6e, 0x73, 0x65, 0x33, 0x2f, 0x42, 0x69,
  0x61, 0x73, 0x41, 0x64, 0x64, 0x00, 0x00, 0x00, 0x02, 0x00, 0x00, 0x00,
  0x01, 0x00, 0x00, 0x00, 0x02, 0x00, 0x00, 0x00, 0x5a, 0xfc, 0xff, 0xff,
  0x00, 0x00, 0x00, 0x09, 0x6c, 0x00, 0x00, 0x00, 0x08, 0x00, 0x00, 0x00,
  0x40, 0x00, 0x00, 0x00, 0x04, 0x00, 0x00, 0x00, 0xe4, 0xfc, 0xff, 0xff,
  0x2c, 0x00, 0x00, 0x00, 0x20, 0x00, 0x00, 0x00, 0x14, 0x00, 0x00, 0x00,
  0x04, 0x00, 0x00, 0x00, 0x01, 0x00, 0x00, 0x00, 0x80, 0xff, 0xff, 0xff,
  0xff, 0xff, 0xff, 0xff, 0x01, 0x00, 0x00, 0x00, 0xda, 0x8a, 0x81, 0x3c,
  0x01, 0x00, 0x00, 0x00, 0x4f, 0x09, 0x81, 0x40, 0x01, 0x00, 0x00, 0x00,
  0x00, 0x00, 0x00, 0x00, 0x1e, 0x00, 0x00, 0x00, 0x73, 0x65, 0x71, 0x75,
  0x65, 0x6e, 0x74, 0x69, 0x61, 0x6c, 0x5f, 0x31, 0x2f, 0x64, 0x65, 0x6e,
  0x73, 0x65, 0x5f, 0x44, 0x65, 0x6e, 0x73, 0x65, 0x32, 0x2f, 0x52, 0x65,
  0x6c, 0x75, 0x00, 0x00, 0x02, 0x00, 0x00, 0x00, 0x01, 0x00, 0x00, 0x00,
  0x0f, 0x00, 0x00, 0x00, 0xda, 0xfc, 0xff, 0xff, 0x00, 0x00, 0x00, 0x02,
  0x60, 0x00, 0x00, 0x00, 0x03, 0x00, 0x00, 0x00, 0x2c, 0x00, 0x00, 0x00,
  0x04, 0x00, 0x00, 0x00, 0xcc, 0xfc, 0xff, 0xff, 0x18, 0x00, 0x00, 0x00,
  0x04, 0x00, 0x00, 0x00, 0x01, 0x00, 0x00, 0x00, 0x00, 0x00, 0x00, 0x00,
  0x00, 0x00, 0x00, 0x00, 0x00, 0x00, 0x00, 0x00, 0x01, 0x00, 0x00, 0x00,
  0x38, 0x20, 0x19, 0x38, 0x25, 0x00, 0x00, 0x00, 0x73, 0x65, 0x71, 0x75,
  0x65, 0x6e, 0x74, 0x69, 0x61, 0x6c, 0x5f, 0x31, 0x2f, 0x64, 0x65, 0x6e,
  0x73, 0x65, 0x5f, 0x44, 0x65, 0x6e, 0x73, 0x65, 0x32, 0x2f, 0x4d, 0x61,
  0x74, 0x4d, 0x75, 0x6c, 0x5f, 0x62, 0x69, 0x61, 0x73, 0x00, 0x00, 0x00,
  0x01, 0x00, 0x00, 0x00, 0x0f, 0x00, 0x00, 0x00, 0x4a, 0xfd, 0xff, 0xff,
  0x00, 0x00, 0x00, 0x09, 0x8c, 0x00, 0x00, 0x00, 0x06, 0x00, 0x00, 0x00,
  0x44, 0x00, 0x00, 0x00, 0x04, 0x00, 0x00, 0x00, 0xd4, 0xfd, 0xff, 0xff,
  0x30, 0x00, 0x00, 0x00, 0x24, 0x00, 0x00, 0x00, 0x18, 0x00, 0x00, 0x00,
  0x04, 0x00, 0x00, 0x00, 0x01, 0x00, 0x00, 0x00, 0x00, 0x00, 0x00, 0x00,
  0x00, 0x00, 0x00, 0x00, 0x00, 0x00, 0x00, 0x00, 0x01, 0x00, 0x00, 0x00,
  0x18, 0x87, 0x78, 0x3b, 0x01, 0x00, 0x00, 0x00, 0x0a, 0x96, 0xf6, 0x3e,
  0x01, 0x00, 0x00, 0x00, 0xc8, 0xd8, 0xc3, 0xbe, 0x39, 0x00, 0x00, 0x00,
  0x73, 0x65, 0x71, 0x75, 0x65, 0x6e, 0x74, 0x69, 0x61, 0x6c, 0x5f, 0x31,
  0x2f, 0x64, 0x65, 0x6e, 0x73, 0x65, 0x5f, 0x44, 0x65, 0x6e, 0x73, 0x65,
  0x32, 0x2f, 0x4d, 0x61, 0x74, 0x4d, 0x75, 0x6c, 0x2f, 0x52, 0x65, 0x61,
  0x64, 0x56, 0x61, 0x72, 0x69, 0x61, 0x62, 0x6c, 0x65, 0x4f, 0x70, 0x2f,
  0x74, 0x72, 0x61, 0x6e, 0x73, 0x70, 0x6f, 0x73, 0x65, 0x00, 0x00, 0x00,
  0x02, 0x00, 0x00, 0x00, 0x0f, 0x00, 0x00, 0x00, 0x32, 0x00, 0x00, 0x00,
  0xea, 0xfd, 0xff, 0xff, 0x00, 0x00, 0x00, 0x09, 0x6c, 0x00, 0x00, 0x00,
  0x0a, 0x00, 0x00, 0x00, 0x40, 0x00, 0x00, 0x00, 0x04, 0x00, 0x00, 0x00,
  0x74, 0xfe, 0xff, 0xff, 0x2c, 0x00, 0x00, 0x00, 0x20, 0x00, 0x00, 0x00,
  0x14, 0x00, 0x00, 0x00, 0x04, 0x00, 0x00, 0x00, 0x01, 0x00, 0x00, 0x00,
  0x80, 0xff, 0xff, 0xff, 0xff, 0xff, 0xff, 0xff, 0x01, 0x00, 0x00, 0x00,
  0xd2, 0xba, 0x1d, 0x3c, 0x01, 0x00, 0x00, 0x00, 0x17, 0x1d, 0x1d, 0x40,
  0x01, 0x00, 0x00, 0x00, 0x00, 0x00, 0x00, 0x00, 0x1e, 0x00, 0x00, 0x00,
  0x73, 0x65, 0x71, 0x75, 0x65, 0x6e, 0x74, 0x69, 0x61, 0x6c, 0x5f, 0x31,
  0x2f, 0x64, 0x65, 0x6e, 0x73, 0x65, 0x5f, 0x44, 0x65, 0x6e, 0x73, 0x65,
  0x31, 0x2f, 0x52, 0x65, 0x6c, 0x75, 0x00, 0x00, 0x02, 0x00, 0x00, 0x00,
  0x01, 0x00, 0x00, 0x00, 0x32, 0x00, 0x00, 0x00, 0x6a, 0xfe, 0xff, 0xff,
  0x00, 0x00, 0x00, 0x02, 0x60, 0x00, 0x00, 0x00, 0x04, 0x00, 0x00, 0x00,
  0x2c, 0x00, 0x00, 0x00, 0x04, 0x00, 0x00, 0x00, 0x5c, 0xfe, 0xff, 0xff,
  0x18, 0x00, 0x00, 0x00, 0x04, 0x00, 0x00, 0x00, 0x01, 0x00, 0x00, 0x00,
  0x00, 0x00, 0x00, 0x00, 0x00, 0x00, 0x00, 0x00, 0x00, 0x00, 0x00, 0x00,
  0x01, 0x00, 0x00, 0x00, 0xd4, 0x8c, 0xad, 0x37, 0x25, 0x00, 0x00, 0x00,
  0x73, 0x65, 0x71, 0x75, 0x65, 0x6e, 0x74, 0x69, 0x61, 0x6c, 0x5f, 0x31,
  0x2f, 0x64, 0x65, 0x6e, 0x73, 0x65, 0x5f, 0x44, 0x65, 0x6e, 0x73, 0x65,
  0x31, 0x2f, 0x4d, 0x61, 0x74, 0x4d, 0x75, 0x6c, 0x5f, 0x62, 0x69, 0x61,
  0x73, 0x00, 0x00, 0x00, 0x01, 0x00, 0x00, 0x00, 0x32, 0x00, 0x00, 0x00,
  0xda, 0xfe, 0xff, 0xff, 0x00, 0x00, 0x00, 0x09, 0x88, 0x00, 0x00, 0x00,
  0x09, 0x00, 0x00, 0x00, 0x40, 0x00, 0x00, 0x00, 0x04, 0x00, 0x00, 0x00,
  0x64, 0xff, 0xff, 0xff, 0x2c, 0x00, 0x00, 0x00, 0x20, 0x00, 0x00, 0x00,
  0x14, 0x00, 0x00, 0x00, 0x04, 0x00, 0x00, 0x00, 0x01, 0x00, 0x00, 0x00,
  0x00, 0x00, 0x00, 0x00, 0x00, 0x00, 0x00, 0x00, 0x01, 0x00, 0x00, 0x00,
  0xaf, 0xe4, 0x2c, 0x3b, 0x01, 0x00, 0x00, 0x00, 0x89, 0x54, 0xab, 0x3e,
  0x01, 0x00, 0x00, 0x00, 0xe6, 0x8a, 0xab, 0xbe, 0x39, 0x00, 0x00, 0x00,
  0x73, 0x65, 0x71, 0x75, 0x65, 0x6e, 0x74, 0x69, 0x61, 0x6c, 0x5f, 0x31,
  0x2f, 0x64, 0x65, 0x6e, 0x73, 0x65, 0x5f, 0x44, 0x65, 0x6e, 0x73, 0x65,
  0x31, 0x2f, 0x4d, 0x61, 0x74, 0x4d, 0x75, 0x6c, 0x2f, 0x52, 0x65, 0x61,
  0x64, 0x56, 0x61, 0x72, 0x69, 0x61, 0x62, 0x6c, 0x65, 0x4f, 0x70, 0x2f,
  0x74, 0x72, 0x61, 0x6e, 0x73, 0x70, 0x6f, 0x73, 0x65, 0x00, 0x00, 0x00,
  0x02, 0x00, 0x00, 0x00, 0x32, 0x00, 0x00, 0x00, 0x3c, 0x00, 0x00, 0x00,
  0x76, 0xff, 0xff, 0xff, 0x00, 0x00, 0x00, 0x09, 0x74, 0x00, 0x00, 0x00,
  0x07, 0x00, 0x00, 0x00, 0x50, 0x00, 0x00, 0x00, 0x10, 0x00, 0x00, 0x00,
  0x0c, 0x00, 0x14, 0x00, 0x04, 0x00, 0x08, 0x00, 0x0c, 0x00, 0x10, 0x00,
  0x0c, 0x00, 0x00, 0x00, 0x30, 0x00, 0x00, 0x00, 0x24, 0x00, 0x00, 0x00,
  0x18, 0x00, 0x00, 0x00, 0x04, 0x00, 0x00, 0x00, 0x01, 0x00, 0x00, 0x00,
  0x00, 0x00, 0x00, 0x00, 0x00, 0x00, 0x00, 0x00, 0x00, 0x00, 0x00, 0x00,
  0x01, 0x00, 0x00, 0x00, 0x7c, 0x7c, 0x00, 0x3c, 0x01, 0x00, 0x00, 0x00,
  0x00, 0xf8, 0x7f, 0x3f, 0x01, 0x00, 0x00, 0x00, 0x00, 0xf8, 0x7f, 0xbf,
  0x17, 0x00, 0x00, 0x00, 0x64, 0x65, 0x6e, 0x73, 0x65, 0x5f, 0x44, 0x65,
  0x6e, 0x73, 0x65, 0x31, 0x5f, 0x69, 0x6e, 0x70, 0x75, 0x74, 0x5f, 0x69,
  0x6e, 0x74, 0x38, 0x00, 0x02, 0x00, 0x00, 0x00, 0x01, 0x00, 0x00, 0x00,
  0x3c, 0x00, 0x00, 0x00, 0x00, 0x00, 0x0e, 0x00, 0x18, 0x00, 0x08, 0x00,
  0x07, 0x00, 0x0c, 0x00, 0x10, 0x00, 0x14, 0x00, 0x0e, 0x00, 0x00, 0x00,
  0x00, 0x00, 0x00, 0x09, 0x54, 0x00, 0x00, 0x00, 0x05, 0x00, 0x00, 0x00,
  0x38, 0x00, 0x00, 0x00, 0x10, 0x00, 0x00, 0x00, 0x0c, 0x00, 0x0c, 0x00,
  0x00, 0x00, 0x00, 0x00, 0x04, 0x00, 0x08, 0x00, 0x0c, 0x00, 0x00, 0x00,
  0x18, 0x00, 0x00, 0x00, 0x04, 0x00, 0x00, 0x00, 0x01, 0x00, 0x00, 0x00,
  0x80, 0xff, 0xff, 0xff, 0xff, 0xff, 0xff, 0xff, 0x00, 0x00, 0x00, 0x00,
  0x01, 0x00, 0x00, 0x00, 0x00, 0x00, 0x80, 0x3b, 0x0d, 0x00, 0x00, 0x00,
  0x49, 0x64, 0x65, 0x6e, 0x74, 0x69, 0x74, 0x79, 0x5f, 0x69, 0x6e, 0x74,
  0x38, 0x00, 0x00, 0x00, 0x02, 0x00, 0x00, 0x00, 0x01, 0x00, 0x00, 0x00,
  0x02, 0x00, 0x00, 0x00, 0x04, 0x00, 0x00, 0x00, 0x4c, 0x00, 0x00, 0x00,
  0x30, 0x00, 0x00, 0x00, 0x1c, 0x00, 0x00, 0x00, 0x04, 0x00, 0x00, 0x00,
  0xe6, 0xff, 0xff, 0xff, 0x00, 0x00, 0x00, 0x06, 0x02, 0x00, 0x00, 0x00,
  0x00, 0x00, 0x06, 0x00, 0x06, 0x00, 0x05, 0x00, 0x06, 0x00, 0x00, 0x00,
  0x00, 0x72, 0x0a, 0x00, 0x0e, 0x00, 0x07, 0x00, 0x00, 0x00, 0x08, 0x00,
  0x0a, 0x00, 0x00, 0x00, 0x00, 0x00, 0x00, 0x19, 0x02, 0x00, 0x00, 0x00,
  0x00, 0x00, 0x0a, 0x00, 0x0c, 0x00, 0x07, 0x00, 0x00, 0x00, 0x08, 0x00,
  0x0a, 0x00, 0x00, 0x00, 0x00, 0x00, 0x00, 0x09, 0x04, 0x00, 0x00, 0x00

};
