const unsigned char model[] = {
  0x1c, 0x00, 0x00, 0x00, 0x54, 0x46, 0x4c, 0x33, 0x00, 0x00, 0x12, 0x00,
  0x1c, 0x00, 0x04, 0x00, 0x08, 0x00, 0x0c, 0x00, 0x10, 0x00, 0x14, 0x00,
  0x00, 0x00, 0x18, 0x00, 0x12, 0x00, 0x00, 0x00, 0x03, 0x00, 0x00, 0x00,
  0x40, 0xfe, 0x00, 0x00, 0x10, 0x00, 0x00, 0x00, 0x1c, 0x00, 0x00, 0x00,
  0x2c, 0x00, 0x00, 0x00, 0x0c, 0x00, 0x00, 0x00, 0x01, 0x00, 0x00, 0x00,
  0xe4, 0x00, 0x00, 0x00, 0x01, 0x00, 0x00, 0x00, 0xac, 0x00, 0x00, 0x00,
  0x0f, 0x00, 0x00, 0x00, 0x54, 0x4f, 0x43, 0x4f, 0x20, 0x43, 0x6f, 0x6e,
  0x76, 0x65, 0x72, 0x74, 0x65, 0x64, 0x2e, 0x00, 0x0d, 0x00, 0x00, 0x00,
  0x80, 0x00, 0x00, 0x00, 0x74, 0x00, 0x00, 0x00, 0x68, 0x00, 0x00, 0x00,
  0x5c, 0x00, 0x00, 0x00, 0x50, 0x00, 0x00, 0x00, 0x44, 0x00, 0x00, 0x00,
  0x38, 0x00, 0x00, 0x00, 0x30, 0x00, 0x00, 0x00, 0x28, 0x00, 0x00, 0x00,
  0x20, 0x00, 0x00, 0x00, 0x18, 0x00, 0x00, 0x00, 0x10, 0x00, 0x00, 0x00,
  0x04, 0x00, 0x00, 0x00, 0x06, 0x03, 0xff, 0xff, 0x4c, 0x00, 0x00, 0x00,
  0xcc, 0x02, 0xff, 0xff, 0xd0, 0x02, 0xff, 0xff, 0xd4, 0x02, 0xff, 0xff,
  0xd8, 0x02, 0xff, 0xff, 0xdc, 0x02, 0xff, 0xff, 0x22, 0x03, 0xff, 0xff,
  0x90, 0x02, 0x00, 0x00, 0x2a, 0x03, 0xff, 0xff, 0x38, 0xed, 0x00, 0x00,
  0x32, 0x03, 0xff, 0xff, 0x60, 0xee, 0x00, 0x00, 0x3a, 0x03, 0xff, 0xff,
  0x78, 0xfa, 0x00, 0x00, 0x42, 0x03, 0xff, 0xff, 0xb0, 0xfb, 0x00, 0x00,
  0x4a, 0x03, 0xff, 0xff, 0x44, 0xfc, 0x00, 0x00, 0x10, 0x03, 0xff, 0xff,
  0x05, 0x00, 0x00, 0x00, 0x31, 0x2e, 0x35, 0x2e, 0x30, 0x00, 0x00, 0x00,
  0x34, 0xfe, 0xff, 0xff, 0x08, 0x00, 0x00, 0x00, 0x0c, 0x00, 0x00, 0x00,
  0x13, 0x00, 0x00, 0x00, 0x6d, 0x69, 0x6e, 0x5f, 0x72, 0x75, 0x6e, 0x74,
  0x69, 0x6d, 0x65, 0x5f, 0x76, 0x65, 0x72, 0x73, 0x69, 0x6f, 0x6e, 0x00,
  0x0c, 0x00, 0x14, 0x00, 0x04, 0x00, 0x08, 0x00, 0x0c, 0x00, 0x10, 0x00,
  0x0c, 0x00, 0x00, 0x00, 0x20, 0x00, 0x00, 0x00, 0x14, 0x00, 0x00, 0x00,
  0x08, 0x00, 0x00, 0x00, 0x04, 0xfc, 0x00, 0x00, 0x01, 0x00, 0x00, 0x00,
  0x00, 0x00, 0x00, 0x00, 0x01, 0x00, 0x00, 0x00, 0x01, 0x00, 0x00, 0x00,
  0x0b, 0x00, 0x00, 0x00, 0x78, 0x00, 0x00, 0x00, 0x38, 0x01, 0x00, 0x00,
  0x90, 0x01, 0x00, 0x00, 0x54, 0xec, 0x00, 0x00, 0xe4, 0x00, 0x00, 0x00,
  0x64, 0xed, 0x00, 0x00, 0xd8, 0xfa, 0x00, 0x00, 0x90, 0x00, 0x00, 0x00,
  0x0c, 0x00, 0x00, 0x00, 0x74, 0xf9, 0x00, 0x00, 0x64, 0xfb, 0x00, 0x00,
  0xae, 0x04, 0xff, 0xff, 0x10, 0x00, 0x00, 0x00, 0x0b, 0x00, 0x00, 0x00,
  0x14, 0x00, 0x00, 0x00, 0x38, 0x00, 0x00, 0x00, 0x02, 0x00, 0x00, 0x00,
  0x01, 0x00, 0x00, 0x00, 0x04, 0x00, 0x00, 0x00, 0x21, 0x00, 0x00, 0x00,
  0x73, 0x65, 0x71, 0x75, 0x65, 0x6e, 0x74, 0x69, 0x61, 0x6c, 0x5f, 0x32,
  0x2f, 0x64, 0x65, 0x6e, 0x73, 0x65, 0x5f, 0x44, 0x65, 0x6e, 0x73, 0x65,
  0x36, 0x2f, 0x42, 0x69, 0x61, 0x73, 0x41, 0x64, 0x64, 0x00, 0x00, 0x00,
  0xec, 0x03, 0xff, 0xff, 0xfa, 0x04, 0xff, 0xff, 0x10, 0x00, 0x00, 0x00,
  0x0a, 0x00, 0x00, 0x00, 0x14, 0x00, 0x00, 0x00, 0x20, 0x00, 0x00, 0x00,
  0x02, 0x00, 0x00, 0x00, 0x01, 0x00, 0x00, 0x00, 0x04, 0x00, 0x00, 0x00,
  0x08, 0x00, 0x00, 0x00, 0x49, 0x64, 0x65, 0x6e, 0x74, 0x69, 0x74, 0x79,
  0x00, 0x00, 0x00, 0x00, 0x20, 0x04, 0xff, 0xff, 0x2e, 0x05, 0xff, 0xff,
  0x10, 0x00, 0x00, 0x00, 0x09, 0x00, 0x00, 0x00, 0x14, 0x00, 0x00, 0x00,
  0x34, 0x00, 0x00, 0x00, 0x02, 0x00, 0x00, 0x00, 0x01, 0x00, 0x00, 0x00,
  0x0f, 0x00, 0x00, 0x00, 0x1e, 0x00, 0x00, 0x00, 0x73, 0x65, 0x71, 0x75,
  0x65, 0x6e, 0x74, 0x69, 0x61, 0x6c, 0x5f, 0x32, 0x2f, 0x64, 0x65, 0x6e,
  0x73, 0x65, 0x5f, 0x44, 0x65, 0x6e, 0x73, 0x65, 0x35, 0x2f, 0x52, 0x65,
  0x6c, 0x75, 0x00, 0x00, 0x68, 0x04, 0xff, 0xff, 0x76, 0x05, 0xff, 0xff,
  0x10, 0x00, 0x00, 0x00, 0x08, 0x00, 0x00, 0x00, 0x14, 0x00, 0x00, 0x00,
  0x34, 0x00, 0x00, 0x00, 0x02, 0x00, 0x00, 0x00, 0x01, 0x00, 0x00, 0x00,
  0x32, 0x00, 0x00, 0x00, 0x1e, 0x00, 0x00, 0x00, 0x73, 0x65, 0x71, 0x75,
  0x65, 0x6e, 0x74, 0x69, 0x61, 0x6c, 0x5f, 0x32, 0x2f, 0x64, 0x65, 0x6e,
  0x73, 0x65, 0x5f, 0x44, 0x65, 0x6e, 0x73, 0x65, 0x34, 0x2f, 0x52, 0x65,
  0x6c, 0x75, 0x00, 0x00, 0xb0, 0x04, 0xff, 0xff, 0xbe, 0x05, 0xff, 0xff,
  0x10, 0x00, 0x00, 0x00, 0x07, 0x00, 0x00, 0x00, 0x14, 0x00, 0x00, 0x00,
  0x30, 0x00, 0x00, 0x00, 0x02, 0x00, 0x00, 0x00, 0x01, 0x00, 0x00, 0x00,
  0x2c, 0x01, 0x00, 0x00, 0x12, 0x00, 0x00, 0x00, 0x64, 0x65, 0x6e, 0x73,
  0x65, 0x5f, 0x44, 0x65, 0x6e, 0x73, 0x65, 0x34, 0x5f, 0x69, 0x6e, 0x70,
  0x75, 0x74, 0x00, 0x00, 0x08, 0x00, 0x0c, 0x00, 0x04, 0x00, 0x08, 0x00,
  0x08, 0x00, 0x00, 0x00, 0x10, 0x00, 0x00, 0x00, 0x04, 0x00, 0x00, 0x00,
  0x01, 0x00, 0x00, 0x00, 0x00, 0x00, 0x7f, 0x43, 0x01, 0x00, 0x00, 0x00,
  0x00, 0x00, 0x00, 0x00, 0x1a, 0x06, 0xff, 0xff, 0x10, 0x00, 0x00, 0x00,
  0x06, 0x00, 0x00, 0x00, 0x14, 0x00, 0x00, 0x00, 0x50, 0x00, 0x00, 0x00,
  0x02, 0x00, 0x00, 0x00, 0x32, 0x00, 0x00, 0x00, 0x2c, 0x01, 0x00, 0x00,
  0x39, 0x00, 0x00, 0x00, 0x73, 0x65, 0x71, 0x75, 0x65, 0x6e, 0x74, 0x69,
  0x61, 0x6c, 0x5f, 0x32, 0x2f, 0x64, 0x65, 0x6e, 0x73, 0x65, 0x5f, 0x44,
  0x65, 0x6e, 0x73, 0x65, 0x34, 0x2f, 0x4d, 0x61, 0x74, 0x4d, 0x75, 0x6c,
  0x2f, 0x52, 0x65, 0x61, 0x64, 0x56, 0x61, 0x72, 0x69, 0x61, 0x62, 0x6c,
  0x65, 0x4f, 0x70, 0x2f, 0x74, 0x72, 0x61, 0x6e, 0x73, 0x70, 0x6f, 0x73,
  0x65, 0x00, 0x00, 0x00, 0x70, 0x05, 0xff, 0xff, 0x60, 0xea, 0x00, 0x00,
  0x56, 0x5e, 0xf7, 0x3b, 0xbf, 0xae, 0xff, 0xbd, 0x46, 0x33, 0x54, 0xbd,
  0xdc, 0x59, 0x07, 0x3e, 0x68, 0x7e, 0x51, 0x3d, 0x46, 0x96, 0x1c, 0x3d,
  0xb6, 0xd3, 0x21, 0xbd, 0xe9, 0xd4, 0x55, 0xbe, 0xff, 0xd9, 0xa3, 0xbd,
  0x9e, 0xc4, 0x78, 0xbc, 0x83, 0x91, 0x3f, 0xbc, 0x3d, 0xfa, 0x83, 0xbd,
  0x68, 0x29, 0x70, 0xbd, 0x5f, 0x14, 0x47, 0xbe, 0x40, 0xbd, 0x8a, 0x3d,
  0xdb, 0x24, 0x6f, 0xbd, 0x3d, 0x5f, 0x80, 0xbd, 0xb9, 0xac, 0x9a, 0x3c,
  0x30, 0x9d, 0x81, 0xbd, 0xdd, 0x7f, 0x52, 0xbe, 0x8f, 0xd1, 0x69, 0x3d,
  0x3f, 0xfc, 0xaa, 0x3d, 0x54, 0x1d, 0x3d, 0x3d, 0x03, 0xaf, 0xef, 0xbd,
  0x57, 0x26, 0x23, 0xbe, 0xff, 0xa5, 0xee, 0xbc, 0xe9, 0xad, 0xb6, 0x3c,
  0x44, 0x01, 0x9b, 0x3d, 0xa8, 0x6c, 0x70, 0xbd, 0x9c, 0x28, 0x42, 0xbc,
  0x78, 0xf0, 0x98, 0xbc, 0xf2, 0xff, 0xd6, 0xbd, 0x30, 0x4b, 0x96, 0x3d,
  0x78, 0x6e, 0x9f, 0x3d, 0xcd, 0xde, 0x1e, 0xbd, 0x44, 0xab, 0x43, 0xbb,
  0x06, 0xdc, 0xd1, 0xbd, 0x4f, 0x00, 0x8a, 0xbc, 0x1f, 0x2e, 0xdd, 0x3d,
  0x62, 0x3a, 0xb6, 0x3d, 0x8e, 0xa5, 0xaf, 0xbc, 0xa0, 0x71, 0x16, 0xbe,
  0x1a, 0x17, 0x93, 0xbd, 0x92, 0xc3, 0x03, 0xbe, 0x18, 0x29, 0x83, 0x3d,
  0x18, 0xcd, 0xcc, 0xbd, 0xed, 0x80, 0x9d, 0x3c, 0xbb, 0xe3, 0xad, 0x3d,
  0x51, 0x94, 0xca, 0xbd, 0x17, 0x49, 0x71, 0xbd, 0x9e, 0x6e, 0x98, 0xbd,
  0x7f, 0x0c, 0x1b, 0xbd, 0x3f, 0x24, 0x55, 0xbd, 0x02, 0x75, 0x77, 0xbd,
  0xe1, 0xab, 0xb7, 0xbd, 0xce, 0x3f, 0x90, 0xbd, 0xe7, 0x5d, 0xe2, 0xbc,
  0x12, 0xda, 0x1f, 0x3d, 0xd5, 0xfb, 0xe6, 0xbc, 0x50, 0x16, 0xc9, 0xbd,
  0x29, 0xea, 0xcd, 0xbd, 0xec, 0x31, 0x13, 0xbe, 0x27, 0x45, 0x80, 0x3d,
  0xf6, 0xfa, 0x5f, 0xbd, 0x74, 0x0d, 0x59, 0xbd, 0x8a, 0xf8, 0x39, 0xbc,
  0x6f, 0x38, 0x3d, 0xbd, 0xcc, 0x0b, 0x57, 0xbe, 0x54, 0x9d, 0x8f, 0x3d,
  0x85, 0x15, 0x62, 0x3d, 0x7f, 0x8b, 0x82, 0x3d, 0x09, 0xae, 0xdc, 0x3d,
  0xe9, 0xf3, 0xdc, 0x3c, 0xc1, 0x0c, 0xf6, 0xbd, 0x6a, 0xc2, 0xfa, 0x3c,
  0xa4, 0x49, 0x54, 0x3c, 0x5f, 0x4f, 0x98, 0xbd, 0xee, 0x0a, 0xef, 0x3c,
  0x2d, 0x1f, 0x4b, 0xbd, 0xa4, 0x98, 0x4b, 0xbe, 0x3c, 0x4d, 0x6e, 0x3d,
  0xc5, 0xdb, 0xb8, 0xbc, 0xac, 0x29, 0xc5, 0xbd, 0x8a, 0x6b, 0x10, 0xbc,
  0x24, 0x57, 0xf3, 0xbd, 0xf5, 0x63, 0xdc, 0xbd, 0x87, 0x1e, 0x2c, 0x3e,
  0x1b, 0xad, 0x8d, 0x3d, 0x14, 0xfc, 0xdd, 0xbd, 0x11, 0xa2, 0xad, 0x3c,
  0x00, 0x3c, 0x2a, 0xbd, 0x4a, 0x27, 0x05, 0xbe, 0x50, 0xa3, 0x40, 0x3c,
  0x06, 0xa5, 0x28, 0xbb, 0xf5, 0x4a, 0x39, 0x3d, 0x62, 0x10, 0x70, 0xbc,
  0x64, 0xc4, 0x75, 0x3c, 0xe7, 0x35, 0xfc, 0xbd, 0x7d, 0x1d, 0x0e, 0x3d,
  0xf3, 0x0a, 0xef, 0xbd, 0x1e, 0x78, 0x0d, 0xbe, 0x19, 0x00, 0x02, 0xbd,
  0x88, 0xdd, 0x90, 0x3d, 0x5f, 0x5b, 0x09, 0xbe, 0xfa, 0x18, 0x76, 0xbd,
  0x29, 0x2f, 0x8b, 0xbd, 0x4f, 0x18, 0x02, 0xbd, 0x8d, 0x29, 0x24, 0xbd,
  0xdc, 0x44, 0x3a, 0x3d, 0x5f, 0x64, 0x32, 0xbe, 0x64, 0x75, 0xc7, 0x3d,
  0x1b, 0x7d, 0x63, 0xbd, 0x1e, 0x36, 0x41, 0x3d, 0xfd, 0xfb, 0x97, 0x3d,
  0xfb, 0xbe, 0xf1, 0x3d, 0x82, 0xc5, 0x0f, 0xbe, 0xc3, 0xed, 0xfd, 0xbb,
  0x07, 0x5a, 0x28, 0xbd, 0xa5, 0xe6, 0xf4, 0x3c, 0x54, 0x4d, 0x5f, 0xbd,
  0x78, 0x60, 0xa1, 0x3d, 0xa3, 0x4b, 0x04, 0xbe, 0x8e, 0x2d, 0xd2, 0xbd,
  0x97, 0x51, 0x48, 0x3d, 0x77, 0x07, 0xcf, 0x3c, 0x94, 0x5d, 0xe2, 0xbc,
  0xf8, 0x03, 0xc4, 0x3d, 0x15, 0xd2, 0x36, 0xbe, 0xc1, 0x8d, 0x7c, 0xbd,
  0xe7, 0x93, 0xd8, 0xba, 0xab, 0x31, 0x50, 0x3d, 0x3f, 0x28, 0x34, 0x3d,
  0x2a, 0x34, 0x93, 0x3b, 0xeb, 0x20, 0xf2, 0xbd, 0xda, 0x33, 0x3c, 0x3d,
  0x7b, 0xa4, 0x5f, 0x3d, 0xe5, 0xe3, 0x7a, 0x3d, 0xf4, 0xed, 0x37, 0xbb,
  0xd9, 0x10, 0xc9, 0x3c, 0x28, 0xec, 0x9e, 0xbd, 0x72, 0xd5, 0x28, 0xbc,
  0xbe, 0xa2, 0xd6, 0xbd, 0x3e, 0xd8, 0xa1, 0xbc, 0x47, 0x20, 0xd1, 0x3c,
  0x9b, 0x9a, 0x80, 0xbc, 0x1f, 0x12, 0x98, 0xbd, 0xd0, 0x3b, 0x5a, 0x3c,
  0xbd, 0x0b, 0xcc, 0x3d, 0xb2, 0x5f, 0xe5, 0xbd, 0xeb, 0x95, 0x9e, 0xbc,
  0x30, 0xec, 0x3c, 0xbd, 0xf4, 0x7e, 0xb5, 0xbd, 0xd0, 0xd4, 0x9d, 0xbd,
  0x67, 0x51, 0x84, 0x3c, 0x24, 0xe8, 0x8b, 0x3d, 0x2c, 0xbc, 0xad, 0xbc,
  0x93, 0x49, 0x0a, 0x3c, 0xec, 0x03, 0x39, 0xbd, 0x09, 0x32, 0x8a, 0x3c,
  0x17, 0xfe, 0xf1, 0xbd, 0x7c, 0x8a, 0x5f, 0xbd, 0xf4, 0xf6, 0xc5, 0x3c,
  0x7e, 0x90, 0x08, 0xbd, 0xd4, 0x2f, 0xc7, 0xbd, 0x51, 0x45, 0xd7, 0xbd,
  0x95, 0x39, 0x69, 0xbd, 0xe6, 0x27, 0x0f, 0x3d, 0x67, 0x21, 0x8c, 0x3d,
  0xa4, 0xb7, 0x0a, 0xbe, 0xba, 0xc9, 0x38, 0xbe, 0x1c, 0xa7, 0xfc, 0x3c,
  0xc7, 0xc2, 0x6b, 0x3d, 0x46, 0x66, 0xda, 0xbd, 0x2f, 0x2d, 0x93, 0x3d,
  0x46, 0x8f, 0x09, 0x3c, 0xd5, 0x58, 0x52, 0xbe, 0x21, 0x45, 0x75, 0xbd,
  0xfc, 0xd8, 0x6d, 0x3c, 0xe0, 0xdb, 0x1b, 0x3d, 0x38, 0x11, 0x00, 0x3d,
  0x4d, 0x89, 0x6f, 0xbd, 0x64, 0xac, 0x33, 0xbe, 0x15, 0xab, 0x04, 0xbc,
  0xff, 0x9d, 0xa5, 0xbd, 0xbe, 0x8f, 0xa4, 0x3d, 0x3d, 0xc6, 0x83, 0xbb,
  0x98, 0xcd, 0x07, 0x3c, 0x06, 0x64, 0x36, 0xbe, 0xc7, 0x23, 0x7d, 0xbd,
  0xa8, 0xae, 0xc3, 0x3d, 0xc9, 0xf1, 0x9d, 0x3d, 0x0a, 0xb4, 0x3c, 0xbd,
  0xd7, 0x81, 0x8a, 0x3d, 0xc5, 0x88, 0x92, 0xbd, 0x3d, 0x6b, 0x76, 0x3d,
  0x7e, 0x05, 0xf1, 0x3d, 0x3b, 0x80, 0xf1, 0xbc, 0x2c, 0x15, 0x2c, 0xbc,
  0x17, 0x92, 0x45, 0x3d, 0xd6, 0x17, 0x72, 0xbd, 0x5a, 0x4d, 0x0e, 0x3d,
  0xdd, 0xbd, 0x2e, 0x3d, 0x81, 0x6e, 0xbb, 0x3b, 0xae, 0x7c, 0xd7, 0xbd,
  0x95, 0xe3, 0xdb, 0xbd, 0xe2, 0xc3, 0x28, 0xbe, 0xf0, 0x71, 0xa0, 0x3d,
  0x00, 0x6c, 0xb7, 0x3c, 0x7a, 0x90, 0x50, 0x3c, 0x7c, 0x1d, 0xcb, 0x3c,
  0x75, 0x22, 0x55, 0x3d, 0xbd, 0x37, 0x30, 0xbe, 0x7a, 0x1b, 0xaa, 0xbd,
  0x18, 0x95, 0x99, 0x3d, 0x27, 0x10, 0x9a, 0x3c, 0x40, 0xb5, 0x7f, 0x3c,
  0x80, 0x8d, 0xa2, 0xbd, 0xd7, 0xaf, 0x5d, 0xbe, 0x74, 0x98, 0x51, 0x3d,
  0x8c, 0xa8, 0x6e, 0x3c, 0x75, 0x32, 0x6e, 0x3d, 0xe1, 0x33, 0xbf, 0x3c,
  0x6a, 0xad, 0x41, 0x3d, 0xee, 0x42, 0x33, 0xbe, 0x31, 0xd0, 0x8e, 0x3d,
  0x37, 0x28, 0xb8, 0x3d, 0x1a, 0xba, 0x15, 0x3d, 0x94, 0xdc, 0x28, 0x3d,
  0x1c, 0x60, 0xc6, 0xbd, 0xa4, 0x15, 0x30, 0xbe, 0x62, 0x34, 0x9f, 0x3c,
  0x48, 0xb9, 0x21, 0x3d, 0xf7, 0x52, 0xac, 0x3c, 0x9b, 0x4f, 0x9c, 0xbd,
  0xe5, 0xf1, 0x0a, 0x3c, 0x20, 0x7d, 0xdf, 0xbc, 0x74, 0xaa, 0xe4, 0x3d,
  0x3a, 0x57, 0xa0, 0xbd, 0xd1, 0xa5, 0xd3, 0xbb, 0xa2, 0x68, 0x2b, 0x3d,
  0x5d, 0x6b, 0x3d, 0x3d, 0xce, 0x25, 0x13, 0xbe, 0x1f, 0xa4, 0xbf, 0x3d,
  0xf1, 0xde, 0x0f, 0xbe, 0x38, 0x57, 0xd3, 0xbd, 0x4b, 0xc4, 0x8f, 0xbc,
  0xd5, 0x8a, 0x19, 0x3e, 0xd4, 0x8f, 0x0b, 0xbe, 0x6f, 0xa2, 0xf9, 0x3d,
  0x84, 0xbd, 0xa4, 0x3c, 0x50, 0xf4, 0x78, 0xbd, 0xa5, 0xdc, 0x72, 0x3b,
  0xf2, 0xb2, 0x56, 0x3d, 0x38, 0x14, 0x2e, 0x3c, 0x08, 0x0d, 0xac, 0x3d,
  0xbf, 0xe0, 0x82, 0x3d, 0xa3, 0x83, 0xe8, 0xbc, 0x01, 0xe1, 0x85, 0x3d,
  0x90, 0xdc, 0x97, 0x3d, 0x0d, 0x86, 0x97, 0xbd, 0xe6, 0xc9, 0x09, 0x3e,
  0x16, 0xa8, 0x92, 0x3d, 0xdf, 0xff, 0x0e, 0x3d, 0x38, 0x7b, 0x86, 0xbd,
  0xfe, 0x93, 0x8d, 0x3d, 0xde, 0xab, 0x9f, 0xbb, 0x16, 0xbc, 0xd9, 0x3c,
  0x47, 0x1c, 0xa6, 0xbd, 0x5b, 0xed, 0xc5, 0xbc, 0xaf, 0xff, 0x54, 0xbd,
  0x91, 0xde, 0xd0, 0x3d, 0x3e, 0xb9, 0x2c, 0xbe, 0xad, 0x9b, 0x23, 0x3e,
  0x33, 0xec, 0x41, 0xbd, 0x0d, 0xe4, 0x89, 0xbc, 0xd0, 0x39, 0x16, 0xbe,
  0x0f, 0x92, 0x13, 0xbd, 0xbc, 0x70, 0x13, 0xbe, 0x95, 0x72, 0x5d, 0x3c,
  0x0c, 0x0d, 0x2b, 0x3a, 0xb2, 0xbf, 0x36, 0xbc, 0xb9, 0x56, 0x45, 0xbd,
  0xbe, 0xb8, 0x1b, 0x3e, 0xaf, 0x06, 0x0d, 0xbe, 0xaf, 0xc8, 0xee, 0xbd,
  0x8a, 0x51, 0xac, 0x3b, 0x07, 0x23, 0x3f, 0xbd, 0x06, 0x2e, 0x0b, 0xbd,
  0xc2, 0x83, 0x58, 0x3d, 0x03, 0xe2, 0x28, 0xbe, 0x98, 0x56, 0x02, 0x3c,
  0xc6, 0xa5, 0xc3, 0xbd, 0x41, 0x3c, 0x86, 0xbd, 0x3d, 0xa0, 0x85, 0xbc,
  0x0b, 0xba, 0x47, 0x3d, 0x21, 0x1b, 0xaf, 0xbd, 0xe5, 0xf7, 0x6f, 0xbc,
  0x71, 0x16, 0x16, 0xbd, 0x06, 0x5b, 0x25, 0xbd, 0xf3, 0xf8, 0x36, 0xbd,
  0x97, 0x1f, 0x52, 0xbb, 0x71, 0xcc, 0xb0, 0xbc, 0x8d, 0x1e, 0xb6, 0xbd,
  0x30, 0x96, 0x03, 0x3d, 0xcf, 0xc5, 0xc8, 0xbd, 0xd4, 0x7c, 0xb9, 0xbd,
  0x30, 0x04, 0x2d, 0x3d, 0x28, 0xe3, 0xdf, 0xbc, 0xf9, 0x50, 0x86, 0x3c,
  0x36, 0xea, 0x98, 0x3d, 0x2b, 0x1c, 0xb3, 0xbc, 0x7f, 0x26, 0xfc, 0xbd,
  0x37, 0x25, 0xa8, 0x3d, 0xdd, 0x0e, 0xe4, 0x3d, 0x43, 0x36, 0x07, 0x3d,
  0xe4, 0xc7, 0xca, 0x3c, 0x6e, 0x89, 0x02, 0xbe, 0xf4, 0x1b, 0xcb, 0x3b,
  0xb5, 0xf7, 0x21, 0x3e, 0xd7, 0x79, 0x50, 0xbb, 0xb2, 0xf6, 0xab, 0xbd,
  0xc3, 0xb4, 0x29, 0xbc, 0xa4, 0x34, 0x11, 0x3d, 0xa4, 0x4f, 0x22, 0x3b,
  0xf5, 0xb4, 0xe5, 0x3c, 0x25, 0x0c, 0xf1, 0xbc, 0x37, 0xa5, 0x60, 0xbd,
  0xd7, 0xa8, 0x27, 0x3b, 0x6e, 0xfd, 0xbc, 0xbc, 0x3d, 0x68, 0x8c, 0x3d,
  0x1c, 0x7d, 0xa1, 0x3b, 0x0a, 0x99, 0x2b, 0xbc, 0xab, 0xe6, 0x3c, 0x3c,
  0x51, 0x47, 0xe9, 0xbb, 0x7f, 0xdb, 0x49, 0x3d, 0x70, 0x8e, 0x9d, 0x3d,
  0x05, 0x01, 0xcd, 0x3b, 0xde, 0x20, 0x3c, 0xbc, 0x4a, 0x3c, 0xe4, 0xbc,
  0x82, 0x84, 0x12, 0x3e, 0xeb, 0x75, 0xe9, 0x3c, 0xe6, 0xe3, 0x17, 0xbc,
  0x75, 0x35, 0x36, 0xbd, 0xf3, 0xda, 0xed, 0xbc, 0xae, 0xa8, 0x82, 0xbd,
  0x58, 0x1a, 0x7e, 0xbd, 0xe7, 0x26, 0x47, 0xbd, 0x80, 0xce, 0x59, 0xbd,
  0x1a, 0xe9, 0x17, 0xbe, 0xd8, 0xcb, 0x1a, 0xbe, 0xf6, 0xf4, 0x94, 0xbc,
  0x93, 0xf7, 0x38, 0x3d, 0xa4, 0x18, 0x95, 0xba, 0x2e, 0x3a, 0xa4, 0xbd,
  0xe0, 0xd7, 0x14, 0xbd, 0xa3, 0x3f, 0xb3, 0x3d, 0xb0, 0xd7, 0x5a, 0xbd,
  0x9e, 0x8e, 0x4e, 0x3d, 0x11, 0x88, 0xa9, 0xbd, 0x43, 0xbd, 0xcd, 0x3c,
  0xc9, 0x8c, 0x83, 0x3c, 0xb0, 0x3f, 0x0a, 0x3d, 0x2a, 0xf8, 0xae, 0x3d,
  0x43, 0x62, 0x62, 0xbd, 0xc6, 0xcf, 0xf9, 0x3d, 0x1c, 0xac, 0x14, 0xbe,
  0xed, 0xe5, 0x94, 0xbd, 0xaa, 0x3b, 0xbd, 0xbc, 0xdc, 0x25, 0xd2, 0xbd,
  0xeb, 0xd3, 0x94, 0x3d, 0xd0, 0xfe, 0xd9, 0x3c, 0x01, 0xec, 0x81, 0xbb,
  0x8b, 0xad, 0xb7, 0xbd, 0xb6, 0xc2, 0xed, 0xbc, 0xde, 0xf7, 0xb0, 0x3d,
  0x36, 0x60, 0xae, 0xbd, 0x6d, 0x29, 0xba, 0x3d, 0x7a, 0xd3, 0xe3, 0xbc,
  0x5a, 0x78, 0x92, 0xbb, 0x0b, 0x4a, 0xe8, 0x3d, 0x6b, 0xb3, 0x25, 0xbe,
  0x53, 0x91, 0x44, 0x3d, 0x9d, 0x7a, 0xec, 0xbc, 0xc0, 0xcb, 0x82, 0xbd,
  0x62, 0xd8, 0x85, 0xbd, 0xef, 0xcc, 0xf3, 0xbb, 0xfc, 0x13, 0xed, 0xbd,
  0x57, 0x67, 0xf9, 0x3c, 0xae, 0x2d, 0xfc, 0x3d, 0x93, 0xf0, 0x0a, 0xbd,
  0xed, 0xe4, 0x9c, 0x3d, 0x53, 0xf1, 0x24, 0x3d, 0xdc, 0xe2, 0x49, 0x3d,
  0x29, 0xe3, 0x7c, 0x3d, 0x5c, 0x73, 0x0e, 0xbb, 0xf6, 0x9d, 0x31, 0xbc,
  0x20, 0xdf, 0x66, 0x3d, 0x07, 0x0b, 0xf2, 0xbd, 0xd3, 0x3f, 0x7d, 0x3d,
  0xed, 0xe5, 0x82, 0x3d, 0xe5, 0x80, 0x65, 0xbd, 0x65, 0xe4, 0xb2, 0xbd,
  0xff, 0x3d, 0x80, 0x3d, 0x46, 0x80, 0x87, 0x3d, 0x04, 0x24, 0x36, 0xbd,
  0xfb, 0xad, 0x6c, 0xbd, 0x98, 0x8a, 0x5a, 0xbd, 0x9d, 0xe0, 0x9a, 0x3c,
  0x02, 0xc7, 0x40, 0xbd, 0xbb, 0x56, 0x21, 0xbd, 0x3f, 0xb3, 0x5e, 0x3d,
  0x81, 0x69, 0xb2, 0x3c, 0xc3, 0x11, 0xb5, 0x3c, 0x81, 0xbc, 0xf3, 0x3d,
  0x56, 0xae, 0xfd, 0x3c, 0x57, 0xb4, 0x7d, 0x3d, 0x2b, 0xff, 0x9b, 0xbd,
  0x3a, 0x1e, 0x1f, 0x3d, 0x2c, 0x66, 0x5b, 0x3d, 0xe1, 0xb9, 0xf7, 0x3d,
  0x44, 0xbc, 0x0a, 0xbd, 0xa4, 0x6a, 0xa3, 0xbc, 0x2b, 0x59, 0xde, 0x3c,
  0x48, 0xa4, 0x1c, 0x3d, 0xbb, 0xff, 0x80, 0x3d, 0xe3, 0xc2, 0x62, 0x3c,
  0x9d, 0xdb, 0x7c, 0xbd, 0x5c, 0x5f, 0xb9, 0xbd, 0xb0, 0x03, 0x62, 0xbd,
  0x13, 0x73, 0x75, 0x3d, 0x0e, 0x0e, 0x4e, 0xbc, 0x6e, 0x12, 0xc6, 0x3d,
  0xa8, 0xba, 0x6c, 0xbd, 0xb2, 0xbe, 0x5c, 0xbd, 0xaa, 0x4c, 0xa1, 0xbc,
  0xe1, 0x61, 0xda, 0xbd, 0xa2, 0x9c, 0xac, 0x3d, 0xbf, 0xa9, 0x07, 0xbe,
  0x17, 0xb5, 0x0e, 0xbd, 0xf3, 0x7b, 0x16, 0x3d, 0xf4, 0xed, 0x00, 0x3d,
  0x4b, 0xc1, 0x0c, 0xbc, 0xb9, 0xa3, 0xc6, 0xbd, 0x9e, 0xb0, 0xfb, 0x3d,
  0x5c, 0x71, 0xfe, 0xbd, 0x2d, 0xa2, 0x23, 0x3d, 0x87, 0xcc, 0x17, 0xbd,
  0x4f, 0xaf, 0xd2, 0xbc, 0x59, 0xab, 0xe7, 0xbc, 0xc7, 0xf4, 0xab, 0xbd,
  0xb0, 0x67, 0xa2, 0xbd, 0xfd, 0xdd, 0x17, 0x3e, 0xf1, 0x3f, 0x20, 0xbe,
  0xe4, 0xe0, 0xa7, 0x3c, 0xb2, 0x1f, 0xf8, 0x3c, 0xf0, 0x5b, 0x37, 0xbd,
  0xf1, 0x78, 0x82, 0x3d, 0x8f, 0x8e, 0x9c, 0xbd, 0xf8, 0xcd, 0x02, 0x3e,
  0x59, 0x57, 0xba, 0x3c, 0x0f, 0x79, 0xa6, 0x3d, 0xfd, 0x7f, 0xdf, 0xbc,
  0x6c, 0xb2, 0xb9, 0xbb, 0x6d, 0xab, 0x42, 0x3c, 0x38, 0xd7, 0x84, 0xbc,
  0xc6, 0x66, 0x3a, 0x3d, 0x69, 0x8f, 0x5b, 0x3d, 0x17, 0x9a, 0x06, 0xbe,
  0x51, 0xf2, 0xa7, 0x3c, 0x92, 0x2a, 0x96, 0x3d, 0x16, 0x68, 0x52, 0xbc,
  0x59, 0x10, 0xd9, 0xb8, 0xcd, 0x56, 0x16, 0x3c, 0x9a, 0x36, 0x8a, 0xbc,
  0x02, 0xaf, 0xc5, 0xbc, 0xb4, 0x0c, 0x45, 0x3b, 0xd5, 0xfa, 0xb1, 0x3d,
  0x6b, 0xe8, 0xeb, 0x3c, 0x84, 0xa8, 0x1a, 0x3e, 0x37, 0x93, 0xc6, 0x3d,
  0x39, 0xa2, 0xe4, 0xbd, 0x0f, 0x1a, 0x08, 0xbe, 0xfb, 0x4f, 0x17, 0xbb,
  0x93, 0xbc, 0xc9, 0x3c, 0x8d, 0xbb, 0x5d, 0x3c, 0xe2, 0x03, 0xb8, 0x3c,
  0x7d, 0x26, 0xc4, 0xbd, 0xd8, 0x99, 0x6a, 0xbd, 0x20, 0xba, 0xa5, 0xbd,
  0x91, 0x57, 0x1a, 0xbc, 0xce, 0x81, 0xee, 0xbd, 0x67, 0x17, 0x96, 0x3c,
  0x49, 0xd0, 0x24, 0xbd, 0xac, 0xc2, 0x45, 0x3d, 0x58, 0xd7, 0xb7, 0x3a,
  0x6d, 0xf9, 0xf2, 0xbd, 0x58, 0xd2, 0xbf, 0xba, 0xae, 0x6b, 0x98, 0xbd,
  0xf9, 0x94, 0x61, 0xbd, 0x9e, 0xd2, 0x1b, 0xbd, 0x51, 0xdb, 0x8e, 0x3d,
  0xd5, 0x42, 0xb1, 0x3d, 0x0e, 0xc7, 0x18, 0x3d, 0xa4, 0x27, 0x6e, 0xbc,
  0x43, 0x00, 0x9d, 0xbd, 0x77, 0x2e, 0xfd, 0xbc, 0xf3, 0x7c, 0x87, 0x3d,
  0x37, 0xf1, 0x95, 0x3d, 0xa1, 0xf1, 0xa0, 0x3d, 0x00, 0xc2, 0x86, 0x3d,
  0x3c, 0x31, 0x0e, 0xbd, 0x74, 0x60, 0x8d, 0x3d, 0xc6, 0xc1, 0xec, 0x3d,
  0x9b, 0x9b, 0x04, 0xbd, 0x24, 0x7b, 0x5c, 0xbd, 0xcf, 0xad, 0xd1, 0xbb,
  0x65, 0x1e, 0xfc, 0xbd, 0x56, 0xd8, 0x0b, 0xbb, 0xb8, 0xc1, 0x8d, 0x3d,
  0x36, 0x70, 0x0b, 0x3c, 0xb3, 0x36, 0x14, 0xbd, 0x85, 0xe9, 0x0c, 0x3c,
  0x36, 0x28, 0x8f, 0xbd, 0xf4, 0x58, 0x18, 0x3c, 0x96, 0x73, 0x35, 0x3c,
  0xb1, 0x93, 0x64, 0xbc, 0x25, 0x68, 0x04, 0xbe, 0xa1, 0x5a, 0xd0, 0xbd,
  0xec, 0x96, 0x01, 0xbe, 0xe1, 0x6e, 0x99, 0xbd, 0x78, 0x85, 0xa9, 0xbd,
  0x40, 0x3e, 0x9e, 0xbd, 0x98, 0x52, 0x80, 0xbb, 0x85, 0x38, 0x47, 0xbc,
  0xe2, 0xee, 0x12, 0xbd, 0xfb, 0x1a, 0xd0, 0xbc, 0x0d, 0x0b, 0x80, 0xbc,
  0x04, 0x95, 0x74, 0xbc, 0x3a, 0xb5, 0x04, 0x3e, 0x37, 0xf5, 0x83, 0xbd,
  0xaf, 0x8d, 0x09, 0x3d, 0xb7, 0xf3, 0x96, 0xbd, 0xe0, 0x5e, 0x06, 0x3e,
  0x82, 0x59, 0x5d, 0x3d, 0xff, 0x6b, 0x10, 0xbe, 0x06, 0x08, 0xa8, 0x3c,
  0x66, 0x1d, 0xb8, 0xbd, 0x51, 0x1b, 0xac, 0x3b, 0x19, 0x07, 0x96, 0xbd,
  0x01, 0x46, 0x2b, 0x3d, 0x1f, 0x69, 0x12, 0x3d, 0xa3, 0x66, 0xa5, 0x38,
  0xfb, 0xef, 0x65, 0x3d, 0xdc, 0xe1, 0x38, 0xbd, 0xce, 0x93, 0xab, 0x3b,
  0x32, 0x07, 0x25, 0xbd, 0xa0, 0xa1, 0x07, 0x3e, 0xa5, 0x7c, 0xf5, 0x3c,
  0x73, 0x6e, 0xd6, 0xbc, 0xa0, 0xa8, 0x95, 0xbd, 0x10, 0xd1, 0x8d, 0xbc,
  0x3f, 0xc6, 0x48, 0xbd, 0x98, 0xe8, 0xdf, 0xbc, 0xf1, 0x39, 0x08, 0x3d,
  0xb8, 0x5a, 0x65, 0x3d, 0x68, 0x5d, 0xcd, 0x3d, 0x49, 0x32, 0x3a, 0xbb,
  0x35, 0x88, 0x83, 0x3d, 0xbd, 0xde, 0x5a, 0xbd, 0x96, 0x19, 0x12, 0xbd,
  0x65, 0xd9, 0x4b, 0x3d, 0x53, 0xef, 0x73, 0xbc, 0xa7, 0xdc, 0x13, 0x3e,
  0x60, 0xb8, 0x08, 0xbe, 0x82, 0x37, 0xf8, 0x3d, 0x81, 0xe2, 0x90, 0x3d,
  0x13, 0x08, 0x8d, 0xbc, 0xa9, 0xd9, 0xe4, 0x3b, 0x63, 0x75, 0x93, 0x3d,
  0x04, 0x84, 0xb7, 0xbb, 0x1c, 0x8a, 0x78, 0xbd, 0x8c, 0x53, 0x0d, 0xbd,
  0xf6, 0xe2, 0x97, 0x3d, 0x1c, 0xc2, 0x70, 0x3d, 0xe8, 0xc3, 0xda, 0x3d,
  0xa1, 0xe4, 0x97, 0xbd, 0x3a, 0x13, 0xe4, 0xbd, 0x35, 0x7b, 0x24, 0xbd,
  0x05, 0xfa, 0xf5, 0x3d, 0x38, 0xe6, 0x0a, 0x3c, 0x32, 0x7e, 0xef, 0x3b,
  0x89, 0x3f, 0x6b, 0x3d, 0xed, 0xd8, 0x02, 0xbd, 0xa0, 0x59, 0xbc, 0xbd,
  0x29, 0xd5, 0x68, 0xbd, 0x81, 0x30, 0x5e, 0xbd, 0xa6, 0xd2, 0xa2, 0xbb,
  0xe3, 0xf7, 0x1b, 0x3e, 0x4a, 0x0f, 0xf5, 0x3c, 0x92, 0xf4, 0xaa, 0x3d,
  0xbb, 0x0c, 0x12, 0x3d, 0xa7, 0x5f, 0xfe, 0x3d, 0x82, 0xd5, 0xb5, 0x3a,
  0xa4, 0x9f, 0x55, 0xbd, 0x8b, 0xd5, 0x98, 0x3c, 0x67, 0xc0, 0x87, 0x3c,
  0xfe, 0x01, 0xc0, 0xbd, 0xed, 0x1f, 0xc5, 0xbc, 0x8b, 0x90, 0x09, 0x3c,
  0x8d, 0x7d, 0x1e, 0xbd, 0x3e, 0xcb, 0x07, 0xbe, 0x9c, 0xab, 0x13, 0xbd,
  0x50, 0x57, 0xfa, 0xbd, 0x34, 0xcd, 0x70, 0xbd, 0xb0, 0xd7, 0x18, 0x3c,
  0x78, 0x4f, 0x08, 0xbd, 0x87, 0xb1, 0x47, 0xbd, 0x77, 0xc8, 0xf6, 0xbd,
  0xa0, 0x76, 0xe7, 0x3d, 0x38, 0x97, 0xa4, 0x3c, 0x03, 0x9c, 0x80, 0x3c,
  0xa3, 0x35, 0xbf, 0xbd, 0x2d, 0x30, 0x5b, 0xbd, 0x62, 0x94, 0x0b, 0xbd,
  0x35, 0x49, 0x8f, 0x3d, 0x40, 0x83, 0xf4, 0xbc, 0x19, 0x2f, 0x21, 0x3c,
  0x97, 0x3b, 0xeb, 0xbd, 0x38, 0xaa, 0xc0, 0x3d, 0xf8, 0x41, 0x1b, 0xbd,
  0x72, 0xf6, 0x11, 0xbe, 0x4b, 0x79, 0x84, 0xbd, 0xf2, 0xa8, 0x52, 0x3d,
  0xdd, 0x6d, 0x4a, 0xbd, 0xde, 0x39, 0x76, 0xbb, 0x69, 0x1a, 0xb3, 0x3d,
  0x4e, 0x61, 0xa0, 0x3d, 0x30, 0x25, 0xb5, 0x3d, 0xd0, 0x67, 0x72, 0xbd,
  0x16, 0xab, 0x8c, 0xbc, 0xad, 0x10, 0x04, 0x3e, 0x6a, 0xb9, 0xb5, 0x3d,
  0x0c, 0x6a, 0xd7, 0xbd, 0xe2, 0x21, 0xd7, 0x3c, 0x6e, 0x23, 0x83, 0xbc,
  0xa9, 0x1e, 0x14, 0xbd, 0x63, 0xd8, 0x06, 0xbc, 0x0f, 0x97, 0xf0, 0x3d,
  0xdf, 0xf0, 0x0a, 0x3d, 0x6a, 0xe4, 0x86, 0xbd, 0x8a, 0xda, 0x8d, 0xbd,
  0xec, 0x80, 0x59, 0x3d, 0x1b, 0xef, 0x1b, 0x3d, 0x37, 0x11, 0xb1, 0x3d,
  0x54, 0x21, 0xc9, 0x3c, 0x96, 0x33, 0xac, 0x3a, 0xc3, 0xbf, 0xc5, 0xbd,
  0x98, 0xb8, 0xe8, 0x3d, 0xff, 0x0e, 0x88, 0x3c, 0x63, 0x09, 0x16, 0x3d,
  0x13, 0x50, 0x86, 0x3d, 0x7b, 0xef, 0x35, 0xbd, 0x28, 0x74, 0x9c, 0xbd,
  0x7d, 0x1a, 0x07, 0x3c, 0x6b, 0xfa, 0xe1, 0xbc, 0x10, 0x8a, 0xde, 0x3d,
  0xdc, 0x24, 0xb4, 0xbd, 0xca, 0xd5, 0x8f, 0xbd, 0x82, 0x95, 0xe9, 0x3d,
  0x4a, 0x1f, 0x1d, 0x3d, 0x5a, 0xe6, 0xc1, 0x3c, 0xb0, 0x11, 0x18, 0x3e,
  0x92, 0x1c, 0x94, 0x3d, 0x38, 0x29, 0xc6, 0xbd, 0x9f, 0x82, 0x42, 0x3c,
  0x6f, 0x67, 0xb1, 0x3d, 0x9b, 0x4a, 0xd1, 0xbd, 0x74, 0x02, 0xef, 0xbc,
  0x76, 0x6f, 0xf2, 0xbc, 0x80, 0x13, 0x4e, 0x3c, 0xe4, 0xcb, 0xa5, 0x3c,
  0x15, 0x91, 0xb5, 0xbc, 0xd6, 0xcf, 0x85, 0xbd, 0xed, 0x88, 0xe7, 0xbd,
  0x50, 0x83, 0xce, 0x3c, 0x17, 0x10, 0xc1, 0x3b, 0x91, 0x61, 0xc4, 0xbd,
  0xd5, 0x97, 0x00, 0x3d, 0x8f, 0x4d, 0x5e, 0xbd, 0x1e, 0xba, 0x60, 0xbd,
  0x39, 0xf6, 0x2b, 0xbd, 0x29, 0x43, 0x77, 0x3d, 0x5c, 0x6c, 0xc4, 0xbd,
  0x90, 0x48, 0xec, 0xbc, 0xf3, 0x66, 0x9a, 0x3d, 0xa6, 0x3d, 0xa8, 0x3d,
  0xba, 0xf9, 0x04, 0xbd, 0x0a, 0x3c, 0x37, 0x3d, 0x01, 0x83, 0x0d, 0x3d,
  0x41, 0x03, 0x0f, 0xbe, 0x86, 0x0b, 0x9b, 0xbd, 0xbd, 0x5f, 0x10, 0xbe,
  0x17, 0x00, 0xa1, 0x3d, 0x0e, 0x24, 0x83, 0x3c, 0x89, 0xfc, 0x3a, 0xbd,
  0x0c, 0x85, 0x48, 0x3c, 0x05, 0x8e, 0x06, 0xbd, 0x0a, 0x7e, 0x06, 0xbd,
  0x26, 0x44, 0x04, 0x3e, 0x37, 0xa8, 0x72, 0x3b, 0x9d, 0xd8, 0xf3, 0x3d,
  0xc3, 0x8b, 0x6a, 0x3c, 0x01, 0x85, 0x97, 0x3c, 0x10, 0xe9, 0x6b, 0xbc,
  0xbf, 0x73, 0x9f, 0xbd, 0xb7, 0x25, 0x4f, 0x3c, 0xbf, 0x08, 0x6e, 0x3c,
  0xf9, 0xb9, 0x30, 0x3d, 0xce, 0x6c, 0x63, 0xbd, 0x80, 0x62, 0x15, 0xbd,
  0x78, 0xeb, 0x5d, 0x3d, 0xd0, 0xe0, 0x3d, 0xba, 0xa8, 0xaa, 0xe4, 0xbc,
  0x19, 0x45, 0x7f, 0xbd, 0x15, 0xa8, 0x03, 0x3e, 0x26, 0x7b, 0xab, 0xbd,
  0xf3, 0xca, 0x14, 0xbd, 0x83, 0x50, 0xc9, 0x3d, 0xe5, 0x6d, 0x73, 0x3d,
  0x0f, 0x9e, 0xc6, 0xbd, 0xf9, 0x1a, 0xbe, 0xbd, 0x34, 0x39, 0xae, 0x3d,
  0x40, 0x03, 0xc1, 0x3d, 0x19, 0x29, 0xe5, 0xbb, 0x32, 0xe2, 0x64, 0x3c,
  0x14, 0xa8, 0x40, 0xbd, 0x13, 0xb1, 0xdb, 0xbd, 0x4a, 0xab, 0xeb, 0x3b,
  0xe7, 0x96, 0x38, 0x3d, 0x4e, 0x7a, 0x13, 0x3d, 0x07, 0xde, 0x92, 0xbd,
  0xb7, 0x2b, 0x56, 0xbb, 0xce, 0x9a, 0x38, 0x3d, 0xcb, 0x55, 0x73, 0x3c,
  0x56, 0x3b, 0x99, 0x3c, 0x95, 0x9e, 0x6f, 0xbd, 0x83, 0xd8, 0x29, 0xbd,
  0xea, 0xbb, 0x41, 0x3c, 0xa0, 0x49, 0xa2, 0x3d, 0x1e, 0xad, 0x06, 0x3d,
  0x74, 0xc0, 0x4e, 0xbd, 0x3a, 0xa8, 0x82, 0xbb, 0xcc, 0x3d, 0x3f, 0x3d,
  0x04, 0x33, 0xdf, 0xbd, 0x5a, 0x6e, 0x10, 0x3c, 0x21, 0x6d, 0xb8, 0x3d,
  0x0d, 0x81, 0x90, 0x3d, 0x83, 0x05, 0x90, 0xbc, 0xcf, 0x5a, 0x9b, 0x3d,
  0x32, 0x32, 0xe4, 0x3c, 0xde, 0x34, 0x80, 0x3d, 0xf8, 0xe4, 0x60, 0x3d,
  0x0b, 0xf5, 0x40, 0x3b, 0x2b, 0x30, 0x23, 0xbd, 0x80, 0x4c, 0xca, 0xbd,
  0x53, 0xe6, 0x8d, 0xbc, 0xdd, 0x1c, 0x10, 0x3e, 0xc6, 0xac, 0x81, 0x3c,
  0x48, 0x0b, 0x10, 0x3e, 0x59, 0x93, 0x3a, 0xbd, 0x81, 0x4f, 0x22, 0xbd,
  0xf0, 0xc2, 0x8c, 0xbd, 0xcb, 0xc8, 0xc0, 0x3c, 0xac, 0xe5, 0x0f, 0x3e,
  0x51, 0xa8, 0x0e, 0xbe, 0x0e, 0xf6, 0x3a, 0xbb, 0x84, 0x0f, 0xd2, 0x3d,
  0x73, 0xf9, 0xe4, 0x3d, 0x2c, 0x0d, 0x95, 0xbc, 0x5d, 0x26, 0xbf, 0x3a,
  0x25, 0xcd, 0xcd, 0x3d, 0xea, 0xf6, 0xe8, 0x3b, 0x3d, 0x2f, 0x95, 0xbd,
  0xb2, 0xc3, 0xa4, 0xbd, 0x3f, 0xb9, 0x37, 0x3d, 0xa3, 0x27, 0x81, 0x3d,
  0x2e, 0xc1, 0x82, 0xbd, 0xfd, 0x7c, 0xd3, 0x3c, 0xe8, 0x35, 0x70, 0xbd,
  0x4b, 0x6f, 0x4b, 0x3d, 0xd2, 0x35, 0x58, 0x3d, 0x77, 0x30, 0x15, 0xbd,
  0x8f, 0xea, 0x94, 0x3d, 0xc0, 0x71, 0x5d, 0xbc, 0x39, 0xbe, 0xff, 0xbc,
  0xd4, 0x52, 0x74, 0x3d, 0xe7, 0x78, 0x1e, 0xbd, 0xdf, 0x37, 0x64, 0x3d,
  0x57, 0x42, 0x10, 0x3e, 0x4f, 0x3a, 0xec, 0x3c, 0xe7, 0x3d, 0xa8, 0x3c,
  0x9e, 0xc5, 0x3f, 0xbd, 0xa5, 0xe6, 0x84, 0x3d, 0x52, 0x55, 0x86, 0x3d,
  0xbe, 0x8d, 0xc8, 0xbd, 0xdd, 0xec, 0x94, 0xbd, 0x82, 0x95, 0xc0, 0xbd,
  0x45, 0xe2, 0x48, 0xbc, 0x32, 0x5b, 0x2a, 0xbd, 0xb5, 0xed, 0xcb, 0x3c,
  0x40, 0xb0, 0x8c, 0x3c, 0x5b, 0x49, 0x5a, 0xbd, 0x53, 0x77, 0x0b, 0xbc,
  0xe2, 0x21, 0xac, 0x3d, 0x61, 0x39, 0x89, 0xbd, 0x14, 0xb3, 0x12, 0x3d,
  0x3b, 0x45, 0xf9, 0xbb, 0xff, 0xb9, 0x6a, 0x3d, 0x5d, 0xbb, 0x08, 0x3d,
  0xf1, 0x56, 0x80, 0x3d, 0x2f, 0x29, 0x1c, 0x3d, 0x9f, 0x38, 0xaa, 0x3c,
  0xd1, 0x4f, 0x92, 0xbc, 0x4e, 0x8c, 0xa7, 0x3c, 0xad, 0xd3, 0x9f, 0xbd,
  0xdd, 0xea, 0x2f, 0x3d, 0x90, 0xbb, 0x0e, 0x3d, 0xb8, 0x87, 0x3e, 0x3d,
  0x66, 0x98, 0x83, 0xbc, 0x72, 0xaa, 0xad, 0xbb, 0xe1, 0x6c, 0xed, 0x3c,
  0xd8, 0x43, 0xdd, 0xbb, 0xc3, 0xff, 0xc2, 0x3d, 0xe7, 0x7f, 0x37, 0xbb,
  0x6c, 0x09, 0x31, 0x3c, 0x92, 0x1b, 0xb3, 0xbd, 0x8d, 0x78, 0x0a, 0xbe,
  0x54, 0xfa, 0x85, 0xba, 0x1d, 0xfd, 0x2e, 0xbd, 0xdf, 0x31, 0xf1, 0xbd,
  0xb9, 0x6e, 0xf4, 0xbc, 0xa5, 0x25, 0x15, 0xbd, 0x65, 0xdb, 0x27, 0xbc,
  0x2a, 0x3c, 0x96, 0xbd, 0xd1, 0x7a, 0xbd, 0xbd, 0xba, 0x42, 0xcc, 0xbc,
  0xe1, 0x70, 0x47, 0x3c, 0xa0, 0x37, 0x2e, 0x3d, 0x2d, 0x90, 0xc9, 0x3c,
  0x16, 0xce, 0x43, 0xbd, 0x68, 0x7a, 0x0a, 0xbe, 0x34, 0x1f, 0x8e, 0xbd,
  0xe5, 0xe1, 0x91, 0x3d, 0x16, 0xc9, 0x39, 0x3c, 0xb0, 0xc7, 0xfc, 0xbd,
  0xf6, 0x16, 0x28, 0x3c, 0x4f, 0xdb, 0xad, 0x3c, 0xc9, 0x2b, 0x91, 0xbd,
  0x1e, 0xba, 0xfc, 0xbc, 0x58, 0xdc, 0x4e, 0x3d, 0x38, 0x3a, 0x6e, 0xbd,
  0xf4, 0xd8, 0x82, 0xbd, 0x7d, 0xcd, 0xc5, 0xbd, 0x23, 0xe6, 0xb5, 0xbd,
  0x57, 0xa8, 0xbc, 0x3d, 0x30, 0x5a, 0xc8, 0x3d, 0xd1, 0x7c, 0x2b, 0x3c,
  0xae, 0xa1, 0x6f, 0xbd, 0xcf, 0x94, 0x99, 0xbd, 0x70, 0xc8, 0xf6, 0x3d,
  0x34, 0xe0, 0xc1, 0x3d, 0x88, 0x59, 0x86, 0xbc, 0xa5, 0xc6, 0xba, 0x3b,
  0x22, 0xe9, 0xf7, 0x3d, 0xc2, 0x0f, 0xc3, 0xbc, 0x30, 0xa8, 0x9e, 0xbc,
  0xf2, 0x47, 0x6e, 0x3c, 0x1c, 0xb9, 0x4d, 0x3d, 0xab, 0xe4, 0xd3, 0xba,
  0x87, 0x5b, 0xe8, 0x3d, 0x95, 0xf6, 0xc1, 0x3d, 0x21, 0x76, 0x01, 0x3d,
  0xdc, 0xbd, 0x01, 0x3c, 0x20, 0x89, 0xc2, 0x3d, 0x60, 0x97, 0x8a, 0x3b,
  0xf5, 0xbc, 0x7b, 0xbd, 0x3b, 0x19, 0xb9, 0x3d, 0x68, 0x8f, 0x08, 0x3e,
  0xa2, 0x39, 0x60, 0xbb, 0x7c, 0x96, 0x38, 0xbc, 0x4b, 0x7d, 0x6c, 0xbc,
  0x28, 0x25, 0xc1, 0xbc, 0xc1, 0xca, 0x67, 0x3d, 0xc0, 0x67, 0x08, 0x3e,
  0xdf, 0x48, 0x82, 0x3b, 0xb8, 0xfe, 0x9c, 0xbc, 0x89, 0xb3, 0x1d, 0x3d,
  0x2e, 0xa9, 0x0c, 0x3e, 0x49, 0x39, 0xbc, 0x3d, 0xaf, 0xd4, 0xdb, 0xbd,
  0xa7, 0x2d, 0x19, 0xbd, 0x9e, 0x96, 0x5c, 0xbb, 0xd2, 0x37, 0x29, 0xbb,
  0x26, 0x90, 0x0e, 0x3c, 0xe4, 0x3e, 0xcd, 0x3c, 0x1e, 0xa3, 0xc4, 0xbd,
  0x5f, 0x4e, 0x8a, 0x3c, 0xb7, 0x37, 0x33, 0x3c, 0x8e, 0x3a, 0xfd, 0xbd,
  0xff, 0x35, 0xad, 0x3d, 0x38, 0x7d, 0x1c, 0xbc, 0xb3, 0x33, 0x08, 0x3d,
  0x2d, 0x03, 0x19, 0xbc, 0x6b, 0xf9, 0xff, 0xbd, 0x2a, 0xb7, 0xf4, 0x3c,
  0x0a, 0xc0, 0x7e, 0xbd, 0x7a, 0xae, 0x5b, 0x3d, 0xc0, 0x20, 0x05, 0xbc,
  0x13, 0x2e, 0xc2, 0x3c, 0xdb, 0x30, 0xe6, 0xbd, 0xf9, 0x8e, 0xf1, 0x3c,
  0x8c, 0xc2, 0xe5, 0xbc, 0x7e, 0x13, 0x8a, 0xbd, 0xca, 0x22, 0x35, 0x3d,
  0x20, 0xdc, 0xfa, 0xbb, 0xb9, 0x3a, 0x3d, 0xbe, 0x7e, 0x89, 0xc9, 0xbd,
  0x80, 0x18, 0x91, 0xbd, 0x7e, 0x10, 0x01, 0xbe, 0xda, 0xbf, 0x15, 0xbe,
  0x86, 0x7f, 0xaa, 0x3d, 0x07, 0xb8, 0x1e, 0xbe, 0x56, 0x57, 0x88, 0xbd,
  0x25, 0xae, 0x84, 0xbd, 0x2f, 0x1f, 0x20, 0xbd, 0x9d, 0xd2, 0x97, 0xbc,
  0x4a, 0x97, 0xcd, 0x3b, 0x19, 0xa8, 0x96, 0xbd, 0xc0, 0xfc, 0xef, 0x3d,
  0x05, 0x10, 0xee, 0x3c, 0x2d, 0x0d, 0x87, 0x3d, 0x99, 0xb2, 0x86, 0x3d,
  0xff, 0x4b, 0x30, 0xbc, 0xce, 0x2c, 0x7a, 0xbd, 0xe1, 0x93, 0x23, 0x3d,
  0x16, 0x49, 0x3c, 0x3c, 0xbf, 0xca, 0x64, 0x3b, 0x24, 0x4c, 0x08, 0x3d,
  0xc2, 0x6e, 0x46, 0x3d, 0xba, 0x9a, 0xad, 0xbd, 0x50, 0x07, 0x3f, 0xbd,
  0x8d, 0x43, 0xda, 0xbd, 0xc6, 0xdb, 0x0b, 0x3c, 0x01, 0x3e, 0x70, 0x3d,
  0x4f, 0xd9, 0xa6, 0x3b, 0xdb, 0xa7, 0xbc, 0xbd, 0x38, 0x93, 0x9d, 0x3d,
  0xe5, 0xfa, 0x18, 0xbd, 0x80, 0x42, 0x80, 0x3d, 0x61, 0x07, 0x8c, 0xbc,
  0xfc, 0xae, 0xf2, 0xbd, 0x32, 0xb0, 0xda, 0xbd, 0x38, 0xc9, 0xb3, 0x3d,
  0xca, 0x10, 0xd8, 0xbd, 0x33, 0x85, 0xc0, 0x3d, 0x76, 0x32, 0xff, 0x3d,
  0x0b, 0x0b, 0x06, 0xbe, 0xbc, 0x22, 0xaf, 0xbd, 0x24, 0xb0, 0xc7, 0x3d,
  0x35, 0xc3, 0x23, 0xbd, 0xbf, 0x05, 0xf0, 0xbc, 0xc1, 0x5d, 0x63, 0x3d,
  0x53, 0xc5, 0x48, 0xbd, 0x69, 0xd5, 0xce, 0xbc, 0xf9, 0x19, 0x36, 0x3d,
  0xe5, 0xd0, 0xf3, 0x3b, 0x81, 0xad, 0xa1, 0x3c, 0xad, 0x95, 0xe9, 0x3d,
  0x16, 0x23, 0xbc, 0x3c, 0x4d, 0x12, 0x0b, 0xbe, 0xd6, 0xf9, 0x18, 0x3e,
  0x3d, 0xc4, 0xf0, 0x3c, 0x83, 0x46, 0xb0, 0xbd, 0x7c, 0xe1, 0xf8, 0x3d,
  0x7b, 0x72, 0x99, 0x3c, 0x83, 0x42, 0x36, 0x3d, 0x47, 0x06, 0xd8, 0x3d,
  0x33, 0xf1, 0xd6, 0x3b, 0x21, 0x2b, 0x09, 0x3d, 0x9a, 0xe0, 0xdf, 0x3d,
  0x66, 0x2d, 0x35, 0x3d, 0x91, 0x36, 0x91, 0x3c, 0x50, 0x1a, 0x80, 0x3d,
  0x7d, 0xef, 0x23, 0xbc, 0xcd, 0xa0, 0xbf, 0x3b, 0xc1, 0xf7, 0x88, 0xbc,
  0x24, 0x00, 0x29, 0xbc, 0x71, 0xad, 0x0d, 0x3b, 0x3d, 0x79, 0x28, 0x3d,
  0x95, 0x84, 0xf3, 0x3c, 0xd6, 0xaa, 0xe1, 0x3c, 0x8a, 0xf2, 0x29, 0x3b,
  0x94, 0x66, 0x8d, 0xbc, 0x21, 0x82, 0x4f, 0x3d, 0xb3, 0xa7, 0xaf, 0x3c,
  0x47, 0xe1, 0x27, 0xbd, 0x3c, 0x20, 0xba, 0x3d, 0x15, 0xa9, 0xe0, 0xbc,
  0xa2, 0xa2, 0x75, 0xbc, 0x54, 0x86, 0x2b, 0x3d, 0xf7, 0xa8, 0x36, 0x3d,
  0xd2, 0x71, 0x96, 0x3c, 0xba, 0xf8, 0x36, 0x3d, 0xc3, 0xb3, 0x2f, 0x3d,
  0x13, 0x1b, 0x0f, 0xbb, 0x84, 0x3c, 0xdf, 0xbd, 0x27, 0x05, 0x9a, 0x3d,
  0xb9, 0xb4, 0x5c, 0x3d, 0xcc, 0x51, 0xfe, 0xbd, 0xfd, 0xe8, 0xcf, 0x3d,
  0xfa, 0xdf, 0x31, 0x3d, 0x2d, 0x1a, 0xb5, 0xbd, 0x08, 0xda, 0x47, 0xbd,
  0x7a, 0xcd, 0xaa, 0xbd, 0x13, 0x29, 0x98, 0xbd, 0xb9, 0x61, 0xc9, 0x3d,
  0xc4, 0x84, 0xa6, 0x3d, 0x03, 0x06, 0x5b, 0xbd, 0x69, 0xa8, 0xc8, 0x3c,
  0x2b, 0x83, 0xa5, 0xbb, 0x3e, 0x37, 0xaf, 0x3d, 0x36, 0x84, 0xb5, 0x3d,
  0xaa, 0x20, 0x4d, 0x3c, 0x70, 0xb2, 0xae, 0xbb, 0x1c, 0x8c, 0x17, 0x3d,
  0x0b, 0x22, 0xf6, 0x3d, 0x48, 0xd2, 0x13, 0x3c, 0x04, 0xee, 0xaf, 0xbc,
  0x38, 0x2c, 0xfe, 0x3d, 0xb4, 0x76, 0xe8, 0xbc, 0xb3, 0x41, 0xbc, 0xbd,
  0x89, 0x59, 0x0b, 0x3d, 0x31, 0xc0, 0x83, 0xbd, 0x5e, 0x89, 0xcb, 0xbc,
  0x6e, 0xfc, 0xee, 0xbd, 0x89, 0x24, 0x0e, 0x3d, 0xd5, 0x2e, 0xc9, 0xbb,
  0xf7, 0x57, 0x80, 0xbc, 0xba, 0x3c, 0xff, 0x3d, 0xf9, 0x22, 0x2d, 0xbc,
  0xf7, 0x7f, 0x10, 0x3d, 0x60, 0xad, 0xc5, 0xbd, 0xf9, 0xdd, 0x18, 0xbe,
  0x83, 0xfc, 0x2e, 0x3b, 0x5c, 0x04, 0x80, 0x3c, 0x14, 0x0c, 0x7f, 0xbd,
  0xcb, 0x26, 0xd9, 0x3d, 0x8c, 0x8c, 0x88, 0xbc, 0xaf, 0xb3, 0xe3, 0x3d,
  0x54, 0xd4, 0x80, 0x3d, 0x1f, 0x52, 0xb6, 0xbc, 0x80, 0xb1, 0xb6, 0xbc,
  0xb5, 0x59, 0x88, 0xbd, 0x1a, 0xf4, 0x17, 0xbe, 0xfc, 0x12, 0x81, 0x3c,
  0x30, 0x32, 0x2f, 0xbd, 0xcf, 0xa6, 0x6e, 0xbd, 0xbd, 0x76, 0xa5, 0x3c,
  0x25, 0x32, 0x73, 0x39, 0xe1, 0xd7, 0x97, 0xbd, 0xf5, 0x79, 0x56, 0x3d,
  0x20, 0xf1, 0x58, 0xbd, 0x59, 0xd0, 0x87, 0x3d, 0xae, 0x24, 0x15, 0xbd,
  0xe7, 0x70, 0x91, 0xbd, 0x1f, 0x21, 0xea, 0x3c, 0x13, 0x5b, 0x17, 0x3d,
  0x4e, 0xa3, 0x59, 0x3c, 0xe7, 0x45, 0x81, 0x3c, 0xf9, 0xbd, 0xb5, 0xbd,
  0x71, 0x04, 0xb9, 0x3a, 0x06, 0x51, 0x04, 0xbe, 0xf0, 0x04, 0x4c, 0xbd,
  0x33, 0x98, 0x99, 0x3b, 0x2d, 0x55, 0x10, 0x3d, 0xf8, 0x50, 0x75, 0x3d,
  0xa1, 0xca, 0x99, 0xbd, 0x45, 0x92, 0xb8, 0xbd, 0xba, 0xbe, 0x44, 0x3d,
  0x58, 0xc6, 0x1c, 0x3d, 0x8d, 0xe9, 0x24, 0xbd, 0xd6, 0x86, 0x48, 0xbc,
  0x89, 0x0e, 0x3b, 0x3d, 0xe4, 0xca, 0x79, 0xbd, 0xab, 0xf7, 0xe2, 0x3d,
  0x48, 0x63, 0xa0, 0xbd, 0x07, 0x84, 0x5c, 0x3d, 0xa5, 0xcf, 0x03, 0xbe,
  0x35, 0xd3, 0x61, 0xbd, 0xd5, 0x88, 0xa9, 0x3d, 0x8d, 0x8f, 0x15, 0x3e,
  0xdf, 0x8d, 0x04, 0x3d, 0xaf, 0x13, 0xa6, 0xbd, 0xea, 0x6f, 0x43, 0xbd,
  0x8d, 0x8b, 0x3b, 0xbc, 0x49, 0xca, 0x79, 0xbd, 0x96, 0x21, 0x98, 0xbd,
  0xad, 0x4e, 0x2f, 0xbc, 0x8c, 0x58, 0x7d, 0x3d, 0x1d, 0xa0, 0x1d, 0xbe,
  0xb3, 0x0b, 0x1c, 0xbd, 0x4f, 0x89, 0x85, 0xbd, 0x85, 0xef, 0x1d, 0x3e,
  0x99, 0x45, 0x25, 0xbd, 0x8c, 0x3f, 0xbd, 0xbd, 0x80, 0x6d, 0x0c, 0xbd,
  0x35, 0xe6, 0x3f, 0xbd, 0x51, 0x7f, 0x22, 0xbe, 0x92, 0x2e, 0xbd, 0x3d,
  0x92, 0x10, 0x52, 0xbd, 0x1e, 0xf6, 0xc2, 0xbd, 0x91, 0xed, 0x17, 0x3d,
  0xd2, 0x67, 0xd3, 0x3d, 0x17, 0x83, 0x3e, 0x3d, 0xbc, 0xa8, 0xd6, 0x3d,
  0xb8, 0xa1, 0xb7, 0xbd, 0x1a, 0x8a, 0x8a, 0xbc, 0x0c, 0xb7, 0x4c, 0x3d,
  0xeb, 0xab, 0x6c, 0xbd, 0x92, 0xfa, 0xb2, 0xbd, 0x3d, 0xf6, 0x99, 0xbd,
  0xfa, 0x8f, 0x1c, 0x3c, 0xb1, 0xf1, 0x94, 0x3b, 0x9b, 0xbd, 0x9a, 0x3d,
  0xb3, 0x35, 0x09, 0x3c, 0x7d, 0x0e, 0xe4, 0xbb, 0x6a, 0xbb, 0x96, 0x3c,
  0x37, 0x5e, 0x32, 0xbd, 0x1a, 0x64, 0xc9, 0xbb, 0x8d, 0x8a, 0x1a, 0xbe,
  0x1a, 0xe7, 0x8b, 0x3d, 0xb9, 0xcd, 0x91, 0x3c, 0x42, 0x68, 0x88, 0x3d,
  0x65, 0xad, 0x31, 0xbd, 0x47, 0x03, 0xc4, 0xbc, 0x0a, 0x05, 0x18, 0xbe,
  0x43, 0x13, 0x98, 0x3d, 0xa4, 0xbc, 0xab, 0xbc, 0xdd, 0x6a, 0xfd, 0x3d,
  0x21, 0x4f, 0xbc, 0x3b, 0xce, 0xd2, 0x9a, 0x3a, 0xf1, 0x4c, 0xfb, 0xbc,
  0xb3, 0x68, 0x7e, 0x3d, 0x6e, 0x15, 0x9e, 0xbd, 0x01, 0x89, 0x08, 0x3e,
  0x65, 0x8a, 0x8c, 0x3d, 0xa4, 0x85, 0x06, 0x3e, 0xec, 0x5f, 0x91, 0x3d,
  0x16, 0xe4, 0x66, 0xbd, 0x36, 0xa4, 0x53, 0xbc, 0x91, 0x55, 0xbe, 0xbb,
  0x14, 0xa1, 0x5d, 0x3d, 0x8b, 0x00, 0x5b, 0x3b, 0x72, 0xc9, 0xe2, 0xbd,
  0x5c, 0xcd, 0x3c, 0xbc, 0x97, 0x04, 0xbe, 0xbd, 0xf0, 0x79, 0x0c, 0x3e,
  0x0d, 0xef, 0x94, 0xbd, 0xb0, 0xd6, 0x2b, 0x3d, 0x6e, 0xd8, 0xa4, 0xbd,
  0xd0, 0xc6, 0x9a, 0xbd, 0x52, 0xdb, 0x83, 0xbd, 0x05, 0x0f, 0x10, 0x3d,
  0xbb, 0x6a, 0x38, 0xbc, 0x1b, 0x77, 0xa7, 0xbc, 0x04, 0x0d, 0xce, 0x3d,
  0xd5, 0xac, 0x5e, 0xbd, 0x5e, 0x30, 0xec, 0xbc, 0xe5, 0x82, 0x80, 0x3d,
  0x8a, 0x05, 0xfa, 0x3c, 0x61, 0x13, 0xf0, 0x3c, 0x0a, 0xaf, 0xee, 0x3c,
  0x8c, 0x68, 0xde, 0x3d, 0x85, 0x71, 0xca, 0xbc, 0xd3, 0xb9, 0xc3, 0x3d,
  0xac, 0x9f, 0x2c, 0x3a, 0x3f, 0x67, 0x13, 0x3c, 0x0b, 0x25, 0x81, 0xbd,
  0x2e, 0x2e, 0xec, 0xbd, 0x2c, 0xa3, 0x8b, 0x3c, 0x0e, 0x27, 0x4c, 0x3d,
  0x4b, 0x16, 0x9a, 0x3d, 0x7b, 0x8c, 0xb2, 0x3d, 0xcb, 0x3e, 0xfd, 0xbd,
  0x4d, 0xa5, 0x5a, 0xbc, 0x21, 0x14, 0x90, 0xbc, 0xf3, 0x88, 0x0c, 0x3e,
  0xe6, 0x09, 0x14, 0x3e, 0x75, 0xbd, 0x55, 0x3d, 0xbc, 0x9e, 0x69, 0xbd,
  0x86, 0xb1, 0x53, 0xbd, 0x77, 0x17, 0xc4, 0x3d, 0xe7, 0xf6, 0x6f, 0xbd,
  0x63, 0x05, 0x36, 0x3d, 0xad, 0x0c, 0xa5, 0x3b, 0x53, 0x8b, 0x61, 0x3c,
  0xb1, 0xe7, 0xca, 0x3c, 0xb8, 0x49, 0xd1, 0x3d, 0xdb, 0xed, 0x03, 0xbe,
  0xeb, 0xcb, 0x05, 0x3e, 0x2f, 0xcd, 0x9e, 0xbd, 0xe5, 0xd0, 0xe8, 0x3d,
  0x51, 0xac, 0x8e, 0xbd, 0xd7, 0xff, 0x0d, 0x3e, 0xe9, 0xeb, 0x54, 0xbd,
  0xe1, 0x2c, 0x05, 0xbe, 0x38, 0xac, 0xc9, 0xbc, 0x74, 0xe3, 0xa5, 0x3d,
  0x6e, 0x56, 0xac, 0xbc, 0x8f, 0x6d, 0xd0, 0x3d, 0x9f, 0x89, 0x12, 0xbc,
  0xbe, 0x72, 0xe8, 0x3d, 0xe0, 0xc2, 0x4f, 0x3d, 0x1c, 0x5f, 0x0a, 0x3e,
  0xd3, 0x9d, 0x58, 0xbd, 0xda, 0x81, 0x18, 0x3e, 0xa8, 0x98, 0x88, 0xbd,
  0x43, 0x72, 0x0a, 0x3d, 0x1d, 0x66, 0xeb, 0xbd, 0x51, 0x7d, 0x4a, 0xbd,
  0xf0, 0x12, 0x96, 0x3c, 0x68, 0x49, 0x24, 0xbc, 0x18, 0x01, 0xf6, 0xbc,
  0xc8, 0xfc, 0x62, 0xbd, 0xeb, 0x8a, 0x5f, 0xbd, 0xb2, 0xf0, 0x6a, 0xbd,
  0x03, 0x46, 0x2d, 0xbd, 0xb8, 0xca, 0xa5, 0x3d, 0xa2, 0xf3, 0xa6, 0x3d,
  0x14, 0xf2, 0xab, 0xbc, 0x74, 0x00, 0x80, 0x3d, 0x7f, 0x9a, 0xac, 0xbd,
  0x6e, 0x96, 0x8a, 0xbd, 0xf2, 0xeb, 0xba, 0x3d, 0x58, 0x64, 0x8e, 0x3d,
  0xd8, 0x2e, 0xcd, 0xbb, 0xaa, 0xfc, 0x77, 0xbd, 0x2c, 0x77, 0x0f, 0xbc,
  0x06, 0x63, 0x8c, 0x3c, 0xdb, 0xfa, 0xc6, 0x3c, 0xc7, 0x51, 0x53, 0xbc,
  0x1b, 0x1c, 0xea, 0xbd, 0x70, 0x56, 0x03, 0xbe, 0xe8, 0xbe, 0x6d, 0xbc,
  0x7d, 0x28, 0xd3, 0xbd, 0x29, 0x70, 0xc0, 0x3c, 0x37, 0xee, 0xa6, 0x3d,
  0x42, 0xf8, 0x48, 0xbd, 0x37, 0x19, 0x75, 0xbd, 0x8b, 0x1f, 0x94, 0xbd,
  0xaa, 0xc6, 0x9f, 0xbd, 0xde, 0x28, 0x79, 0xbd, 0x66, 0xba, 0x3c, 0x3c,
  0x03, 0xe2, 0x5f, 0x3d, 0xc4, 0xdf, 0xd7, 0x3d, 0xbd, 0xe8, 0x41, 0x3d,
  0xf5, 0xab, 0x89, 0xbd, 0xa8, 0x42, 0x42, 0x3d, 0x53, 0x13, 0xe5, 0xbc,
  0xff, 0x49, 0xcb, 0xbd, 0xc9, 0xa5, 0xfc, 0x3d, 0xf4, 0x6d, 0xff, 0x3c,
  0x7d, 0x1e, 0x54, 0x3d, 0x0b, 0xe2, 0xe1, 0x3d, 0x5e, 0x4a, 0x57, 0xbd,
  0xc3, 0x23, 0xa2, 0x3b, 0x29, 0xcb, 0xb6, 0x3b, 0x29, 0x27, 0x09, 0xbe,
  0x10, 0xf7, 0x73, 0x3d, 0x24, 0xc9, 0xaf, 0x3d, 0xc9, 0x10, 0xe6, 0x3c,
  0xa5, 0xc0, 0xaa, 0xbd, 0x27, 0x4a, 0x19, 0xbd, 0x78, 0x8d, 0x6e, 0xbd,
  0x0c, 0x73, 0x7d, 0xbd, 0xff, 0x00, 0x33, 0xbd, 0x54, 0x99, 0xf8, 0xbc,
  0x05, 0x34, 0xcc, 0x3d, 0xb6, 0x3b, 0x87, 0xbd, 0x14, 0x72, 0x51, 0xbd,
  0xdf, 0xfa, 0x03, 0xbd, 0xee, 0xae, 0xb2, 0x3d, 0x7f, 0xad, 0xca, 0xbc,
  0x09, 0xce, 0x3b, 0x3d, 0x0e, 0xa9, 0x3f, 0xbd, 0x86, 0x5c, 0xbf, 0x3d,
  0x17, 0xd7, 0xf4, 0xbd, 0x83, 0x6d, 0xbb, 0x3b, 0x31, 0x15, 0xdf, 0xbd,
  0x79, 0x03, 0x9c, 0xbd, 0x49, 0xaa, 0x9a, 0xbc, 0xa5, 0xc7, 0x1d, 0xbc,
  0xa5, 0x8c, 0x20, 0xbd, 0x73, 0x6c, 0xba, 0x3c, 0x82, 0x02, 0x0b, 0xbd,
  0xea, 0x44, 0x21, 0x3a, 0x71, 0x7b, 0xfd, 0xbc, 0xe3, 0x9f, 0x25, 0xbb,
  0x08, 0x13, 0x3a, 0xbd, 0x01, 0x93, 0xd6, 0x3d, 0x26, 0xb0, 0x82, 0xbc,
  0x05, 0x9f, 0xa9, 0xbd, 0xc8, 0xd6, 0x1e, 0x3d, 0xae, 0xc5, 0x84, 0x3d,
  0xe4, 0x50, 0xe6, 0x3b, 0x9f, 0xc0, 0xcd, 0xbd, 0x4c, 0xce, 0xa2, 0x3c,
  0xce, 0x2d, 0x3b, 0xbc, 0xe5, 0xae, 0xab, 0x3d, 0x11, 0xeb, 0xf0, 0x3d,
  0xef, 0x3b, 0x44, 0x3c, 0x82, 0x7f, 0x77, 0xbc, 0x84, 0x27, 0x19, 0xbc,
  0xfd, 0x68, 0xf9, 0xbd, 0x3d, 0xef, 0xfe, 0x3d, 0x26, 0xb8, 0x16, 0x3e,
  0xd4, 0xb9, 0xa3, 0xbd, 0x08, 0x62, 0x61, 0xbc, 0xe0, 0x08, 0x87, 0xbd,
  0x54, 0x27, 0x14, 0xbe, 0x30, 0x9a, 0x7b, 0xbd, 0x95, 0xb8, 0xc1, 0xbd,
  0xef, 0xc5, 0x05, 0x3d, 0x1a, 0xaf, 0x62, 0x3d, 0x92, 0x60, 0x92, 0x3d,
  0x23, 0xfe, 0xdf, 0x3d, 0x49, 0xab, 0xa9, 0x3d, 0x29, 0x28, 0x8b, 0x3d,
  0x7c, 0xdd, 0xda, 0xbd, 0xb0, 0xd6, 0x67, 0x3d, 0x91, 0x28, 0xd7, 0x3c,
  0xd8, 0x5b, 0x21, 0x3d, 0xdc, 0x6a, 0x59, 0x3d, 0x73, 0x22, 0xf7, 0xbd,
  0xf4, 0x26, 0x9d, 0xbd, 0x4b, 0x6f, 0xd3, 0xbb, 0x05, 0x94, 0xcc, 0xbd,
  0x5d, 0x92, 0xa8, 0x3d, 0x4d, 0xb0, 0xe9, 0xbb, 0x50, 0xf4, 0xfb, 0xbd,
  0x90, 0x1b, 0x10, 0x3a, 0x37, 0x0f, 0x35, 0x3d, 0xb4, 0xb1, 0x11, 0x3b,
  0x95, 0x69, 0xe3, 0xbd, 0x83, 0xd2, 0x58, 0x3c, 0x75, 0x25, 0xda, 0xbb,
  0x04, 0x16, 0x46, 0x3d, 0x45, 0x1f, 0x08, 0x3e, 0xda, 0x0f, 0xf8, 0x3d,
  0xb8, 0x31, 0xb6, 0x3c, 0x27, 0xd2, 0x4f, 0xbc, 0x7e, 0x90, 0xe1, 0xbd,
  0x4f, 0x4f, 0xd3, 0x3c, 0xda, 0x09, 0x4a, 0x3c, 0x60, 0xd9, 0xbf, 0x3d,
  0x91, 0x17, 0xf2, 0xbd, 0x8b, 0x93, 0xf0, 0xbc, 0xf7, 0xcf, 0x9b, 0x3c,
  0x04, 0x31, 0xcc, 0x3b, 0x20, 0xd9, 0xfc, 0x3d, 0x74, 0xde, 0x92, 0xbc,
  0x78, 0xfb, 0xde, 0x3d, 0x33, 0xd4, 0xcc, 0xbd, 0x55, 0xeb, 0x87, 0xbd,
  0x15, 0x23, 0x29, 0xbe, 0x99, 0xca, 0x16, 0xbc, 0x52, 0xa3, 0x7f, 0x3d,
  0xf7, 0xd2, 0xa0, 0x3d, 0xb9, 0x27, 0x1d, 0xbd, 0xe4, 0x9a, 0x0f, 0x3d,
  0xe8, 0x00, 0xac, 0x3d, 0xe7, 0x9f, 0x09, 0x3d, 0x47, 0x68, 0xa9, 0x3d,
  0x2f, 0x77, 0x50, 0xbc, 0x8b, 0x18, 0x8a, 0xbd, 0x54, 0xa2, 0x0e, 0xbd,
  0xf6, 0x7b, 0x93, 0xbd, 0x34, 0x0f, 0x9a, 0x3d, 0x2f, 0x2a, 0x27, 0x3d,
  0x39, 0xdb, 0xc0, 0x3d, 0x83, 0xd9, 0xbc, 0x3c, 0xad, 0xb5, 0x1e, 0x3d,
  0x61, 0x41, 0xff, 0xbc, 0xd0, 0x6b, 0x30, 0xbd, 0xcc, 0x5e, 0xbb, 0x3c,
  0xed, 0x60, 0x11, 0xbb, 0x07, 0x9c, 0xf4, 0xbd, 0x56, 0x2c, 0xe4, 0x3d,
  0x75, 0xae, 0x64, 0xbc, 0xa9, 0x20, 0x16, 0x3e, 0xd9, 0x81, 0xf1, 0x3c,
  0xb4, 0x05, 0xd6, 0x3d, 0xd5, 0x67, 0xc6, 0xbb, 0xf6, 0xbf, 0x82, 0xbc,
  0x44, 0xbf, 0x05, 0xbe, 0x37, 0xe2, 0x49, 0xbd, 0xe5, 0xda, 0x60, 0xbc,
  0xed, 0x0b, 0xd8, 0x3d, 0xba, 0xf4, 0x38, 0xbd, 0xc4, 0x29, 0x9e, 0x3d,
  0x1a, 0xc8, 0xe8, 0xbd, 0x8f, 0xad, 0x10, 0x3e, 0x29, 0x48, 0x5a, 0xbb,
  0x56, 0x6f, 0x3e, 0x3d, 0x28, 0x40, 0xaa, 0xbd, 0xd5, 0x1f, 0x63, 0xbc,
  0xdf, 0x7f, 0x33, 0x3d, 0x3e, 0x8e, 0x8e, 0x3d, 0xd8, 0xa8, 0x82, 0xbd,
  0x12, 0x22, 0x87, 0xbc, 0xc1, 0x2f, 0x6a, 0xbd, 0x2f, 0xdc, 0xdc, 0x3c,
  0x08, 0x38, 0x44, 0xbd, 0x26, 0xcc, 0x9d, 0xbd, 0x2f, 0xbe, 0xce, 0x3d,
  0xa6, 0xcf, 0xc8, 0xbc, 0xb5, 0x56, 0x7c, 0xbd, 0x4e, 0xa8, 0xd0, 0x3d,
  0x52, 0x32, 0xa6, 0xbd, 0x26, 0x6e, 0xc0, 0x3a, 0x05, 0x76, 0xa2, 0x3c,
  0x10, 0xf2, 0x0b, 0xbe, 0x6b, 0x53, 0xf5, 0xbc, 0x11, 0x0d, 0xea, 0x3c,
  0x76, 0x79, 0xef, 0xbd, 0x8d, 0xd2, 0x9f, 0x3d, 0xd3, 0x9d, 0x70, 0xbd,
  0xfa, 0x82, 0xd1, 0xbd, 0xcf, 0x40, 0x05, 0xbd, 0xc8, 0xb3, 0xe5, 0xba,
  0x56, 0x59, 0x54, 0xbc, 0x6d, 0x9d, 0xc4, 0xbd, 0x6f, 0x60, 0x00, 0x3e,
  0x40, 0xfc, 0x1c, 0x3d, 0x5b, 0xd9, 0x9b, 0x3d, 0xfc, 0xe7, 0x44, 0xbd,
  0x2e, 0x3d, 0x46, 0xbe, 0x54, 0x32, 0x6c, 0xbd, 0x66, 0x0a, 0x80, 0x3c,
  0xfc, 0xb4, 0xc6, 0xbd, 0x49, 0x51, 0x61, 0xbc, 0x8e, 0x7d, 0x31, 0x3d,
  0xca, 0x89, 0x64, 0xbd, 0xcf, 0x8c, 0xcc, 0x3d, 0x0d, 0xe6, 0x56, 0xbc,
  0x14, 0x89, 0x18, 0x3e, 0x19, 0xad, 0x8a, 0xbd, 0xc5, 0x56, 0xad, 0x3c,
  0x33, 0x2b, 0x99, 0xbd, 0xef, 0xfe, 0x9c, 0x3d, 0xe6, 0x78, 0x43, 0xbd,
  0x1e, 0x2a, 0x4a, 0xbc, 0xa2, 0x16, 0x04, 0xbc, 0xfb, 0x3a, 0x0d, 0xbe,
  0xa8, 0x93, 0xe4, 0xbd, 0x69, 0x5e, 0xeb, 0x3d, 0x4b, 0xdf, 0x0c, 0xbc,
  0xab, 0x44, 0x0a, 0xbd, 0x2d, 0x6e, 0xb2, 0x3d, 0x52, 0x47, 0x6a, 0xbb,
  0x2b, 0xe0, 0xec, 0xbc, 0x25, 0x4a, 0x07, 0x3e, 0x0b, 0xe9, 0x76, 0xbc,
  0x2f, 0xbe, 0x25, 0x3d, 0x13, 0x81, 0x30, 0xba, 0xf3, 0xc2, 0x52, 0x3d,
  0x20, 0x1b, 0x2a, 0xbe, 0xf5, 0xd8, 0x01, 0x3e, 0xee, 0x09, 0x82, 0xbd,
  0x3f, 0x87, 0x9a, 0xbd, 0x5f, 0xd9, 0x95, 0x3c, 0x51, 0x79, 0xb6, 0x3d,
  0x39, 0xcf, 0x0a, 0xbd, 0x64, 0x8c, 0xf0, 0x3d, 0x95, 0xe5, 0xc1, 0x3d,
  0x21, 0x72, 0xe6, 0x3d, 0x2e, 0x4d, 0xa2, 0x3c, 0x41, 0xcd, 0xfb, 0xba,
  0x20, 0x87, 0xf2, 0xbc, 0xcd, 0x68, 0xae, 0x3d, 0x86, 0xc4, 0x4d, 0xbc,
  0xf1, 0xf3, 0x1b, 0x3c, 0x70, 0x65, 0xf5, 0xbc, 0x8b, 0xd0, 0x75, 0xbd,
  0x42, 0x35, 0xca, 0xbb, 0x0d, 0x02, 0xa3, 0x3d, 0x2f, 0x6d, 0x2c, 0x3d,
  0xae, 0x66, 0xa6, 0x3d, 0x95, 0x3a, 0x54, 0xbd, 0x76, 0x04, 0xb7, 0xbc,
  0xb9, 0xc7, 0x1b, 0xbe, 0x6a, 0xff, 0x48, 0x3d, 0x64, 0x99, 0xcd, 0x3d,
  0xa6, 0xa1, 0xa4, 0x3d, 0x6f, 0x42, 0xe9, 0x3d, 0x20, 0xea, 0x51, 0x3d,
  0x01, 0x0e, 0xb7, 0xbd, 0x10, 0x88, 0x17, 0x3c, 0x7f, 0xe3, 0xb6, 0x3a,
  0x1b, 0x6e, 0xf1, 0xbd, 0xb4, 0x10, 0x55, 0x3c, 0x60, 0x2a, 0x0f, 0x3c,
  0x70, 0x46, 0xa8, 0xbd, 0x65, 0xa3, 0xd8, 0xbb, 0x34, 0xab, 0xcb, 0x3d,
  0x6e, 0x53, 0x73, 0x3d, 0x85, 0x1d, 0xef, 0x3d, 0xba, 0xfc, 0xf7, 0xbc,
  0xce, 0x4c, 0xf7, 0xbd, 0xae, 0x76, 0x28, 0x3e, 0x94, 0xb8, 0x60, 0x3d,
  0x25, 0xf1, 0xa9, 0x3c, 0xc5, 0xfe, 0xd6, 0x3d, 0xcb, 0x65, 0x86, 0xbd,
  0xf7, 0xe9, 0xbc, 0xbd, 0xc0, 0xc8, 0xc9, 0x3d, 0x53, 0x73, 0x6e, 0xbc,
  0x14, 0xbf, 0x40, 0x3c, 0x3f, 0x98, 0x88, 0x3d, 0xd6, 0x9b, 0x69, 0x3d,
  0x49, 0xea, 0xe1, 0xbd, 0x5e, 0x49, 0x30, 0x3d, 0x27, 0xea, 0xc2, 0x3d,
  0x20, 0x2c, 0xe8, 0x3b, 0x49, 0x47, 0x95, 0xbc, 0xa5, 0x16, 0x30, 0x3b,
  0x62, 0x7f, 0x21, 0x3c, 0xc4, 0x00, 0x49, 0xbc, 0xd2, 0xe7, 0x8e, 0xbd,
  0x98, 0x21, 0x27, 0xbe, 0x99, 0x22, 0x1c, 0x3d, 0x08, 0x22, 0x5b, 0x3c,
  0x36, 0xc0, 0xdd, 0xbd, 0x1f, 0x0c, 0x96, 0x3d, 0x20, 0xaa, 0xcf, 0x3c,
  0x4e, 0xa8, 0xec, 0xbc, 0x7a, 0x7b, 0x56, 0xbd, 0xd4, 0x2b, 0x1d, 0x3d,
  0xe2, 0xb9, 0x82, 0xbc, 0xa4, 0x14, 0xfe, 0x3d, 0xda, 0xe0, 0xbc, 0x3c,
  0x3e, 0x78, 0xc6, 0xbd, 0xe7, 0xad, 0x32, 0xbd, 0xaf, 0xce, 0x07, 0xbe,
  0xe0, 0x9c, 0x08, 0xbd, 0x22, 0x8b, 0x20, 0x3d, 0xf1, 0xb8, 0x36, 0x3e,
  0xfa, 0x3f, 0xbf, 0x3d, 0xcc, 0xbe, 0xac, 0x3d, 0x29, 0x9d, 0x2b, 0x3c,
  0x13, 0x74, 0x08, 0x3b, 0xbf, 0x3f, 0xd8, 0x3d, 0x7c, 0x11, 0x08, 0xbd,
  0x31, 0x4b, 0x5a, 0xbd, 0x74, 0x5e, 0x2b, 0x3d, 0xc0, 0x5d, 0xc7, 0x3b,
  0x30, 0xdb, 0x0e, 0x3e, 0x27, 0xc8, 0x32, 0x3e, 0xb7, 0x2c, 0x3c, 0xbd,
  0x20, 0xb4, 0xa4, 0xbc, 0x5b, 0x3c, 0x80, 0x3d, 0x48, 0x7b, 0x70, 0xbd,
  0xac, 0xce, 0x9b, 0xbc, 0xf3, 0xaa, 0x6e, 0x3d, 0x7f, 0x2d, 0x56, 0x3c,
  0xcf, 0x79, 0xa7, 0x3b, 0xa2, 0xaa, 0xee, 0xbc, 0x5d, 0x9f, 0x18, 0x3d,
  0x82, 0xa9, 0x8d, 0xbd, 0x99, 0xb0, 0xe2, 0x3d, 0xdb, 0x0d, 0xc1, 0x3c,
  0x38, 0x6f, 0xd1, 0xbc, 0x24, 0xd1, 0x19, 0xbc, 0x74, 0x1b, 0xca, 0x3a,
  0x72, 0xc2, 0x15, 0x3e, 0x87, 0xcb, 0x6f, 0x3e, 0xfe, 0xcd, 0x9e, 0x3b,
  0x51, 0x49, 0xa0, 0xbd, 0x6f, 0x05, 0x46, 0x3d, 0xa1, 0x6d, 0xb5, 0xbc,
  0xe4, 0x38, 0xe4, 0x3d, 0x3f, 0x0d, 0xa1, 0x3d, 0x4c, 0xe3, 0xfa, 0xbd,
  0x0e, 0x3b, 0xf7, 0x3d, 0xef, 0x4e, 0x19, 0xbd, 0xdf, 0x09, 0xa3, 0x3d,
  0xd3, 0x3f, 0x27, 0x3d, 0x6e, 0x96, 0x5e, 0x3d, 0x46, 0x9d, 0xac, 0xbd,
  0x18, 0x12, 0xc3, 0xbc, 0xea, 0x5e, 0x48, 0x3d, 0x9d, 0x12, 0x00, 0x3e,
  0x56, 0xc4, 0x1e, 0xbd, 0x5e, 0xd6, 0xb2, 0x3d, 0x4f, 0x54, 0x17, 0x3e,
  0xba, 0x45, 0x1d, 0xbe, 0x79, 0x5a, 0x74, 0xbd, 0x26, 0x12, 0x9e, 0x3d,
  0x45, 0x32, 0x48, 0xbd, 0xcd, 0x7b, 0x48, 0x3d, 0xb2, 0xe3, 0x12, 0xbd,
  0xf6, 0x46, 0xe7, 0x3d, 0x60, 0xab, 0x91, 0xbb, 0xe1, 0xba, 0x17, 0xbc,
  0xa6, 0x07, 0x0d, 0x3d, 0x38, 0x95, 0x22, 0x3d, 0xa5, 0x67, 0x93, 0xbd,
  0x01, 0xf4, 0xb3, 0x3d, 0x3d, 0x01, 0xb0, 0xbb, 0xca, 0xa6, 0x30, 0xbd,
  0xe0, 0x53, 0xcc, 0x3d, 0xa0, 0xd7, 0x80, 0x3d, 0x6b, 0xf6, 0xee, 0x3d,
  0x14, 0x16, 0xaa, 0x3d, 0x37, 0x52, 0x6c, 0xbd, 0xde, 0x4d, 0xe3, 0xbd,
  0x7c, 0xbf, 0xb5, 0xbd, 0xff, 0xa1, 0xa9, 0xbd, 0xc4, 0xd9, 0xba, 0x3d,
  0x42, 0x60, 0xbe, 0xbd, 0x47, 0x88, 0xa1, 0xbd, 0xed, 0xad, 0x3a, 0xbd,
  0x59, 0xee, 0x69, 0xbd, 0x8f, 0x70, 0xc4, 0x3c, 0x20, 0x72, 0x25, 0xbd,
  0x63, 0xf5, 0xf3, 0xbd, 0x40, 0x35, 0xba, 0x3d, 0xed, 0x4d, 0x94, 0xbd,
  0x5d, 0xa4, 0x8a, 0xbc, 0xc7, 0x21, 0x1b, 0x3d, 0x58, 0x55, 0x32, 0x3e,
  0xf8, 0x30, 0xdd, 0x3d, 0xca, 0x5b, 0xec, 0xbd, 0xdf, 0x2f, 0x67, 0x3d,
  0x32, 0x23, 0x9a, 0x3c, 0x72, 0x2c, 0xc4, 0xbd, 0xe7, 0x64, 0x3a, 0x3d,
  0xa3, 0x03, 0xb6, 0x3c, 0xb8, 0xaf, 0x14, 0xbc, 0x3f, 0x11, 0xd4, 0xbd,
  0x5c, 0xad, 0xeb, 0x3d, 0xfb, 0xca, 0xd2, 0xbd, 0xeb, 0x0f, 0x96, 0x3d,
  0x15, 0xae, 0x07, 0x3e, 0x0d, 0x81, 0xaa, 0xbd, 0xb4, 0xec, 0x03, 0x3e,
  0xa6, 0x3f, 0x48, 0xbd, 0xbf, 0xa8, 0x68, 0x3a, 0xc1, 0xb6, 0x52, 0x3d,
  0x14, 0xaa, 0xb3, 0xbd, 0x96, 0xa5, 0x72, 0xbc, 0x8a, 0xf3, 0xc2, 0x3c,
  0xc9, 0xdc, 0xba, 0xbd, 0xb8, 0xb7, 0xdc, 0x3d, 0xb7, 0xdc, 0x83, 0xbd,
  0x16, 0xe1, 0x95, 0xbd, 0xde, 0x30, 0xe6, 0xbc, 0x68, 0x04, 0xac, 0xbc,
  0x49, 0xf9, 0xa0, 0xbd, 0x88, 0xb9, 0x48, 0x3d, 0x74, 0xce, 0x4c, 0xbc,
  0x25, 0xe8, 0x92, 0xbd, 0x3a, 0x84, 0x93, 0xbc, 0xf6, 0x4a, 0xb2, 0x3a,
  0x1f, 0x6b, 0x45, 0x3d, 0xe4, 0x68, 0x30, 0x3e, 0x7a, 0xab, 0xcc, 0x3c,
  0x4d, 0x5a, 0xd0, 0xbd, 0xee, 0x62, 0x9b, 0xbc, 0xcb, 0x89, 0x37, 0x3d,
  0x53, 0x7f, 0x75, 0x3d, 0x14, 0x59, 0xf2, 0x3b, 0x5b, 0x4a, 0xab, 0xbd,
  0x1c, 0xd9, 0xe5, 0xbc, 0xf0, 0x19, 0x0c, 0xbd, 0xcf, 0x90, 0x0c, 0xbd,
  0xa2, 0x47, 0xcf, 0x3c, 0xdb, 0x4b, 0xeb, 0x3d, 0x10, 0x9a, 0x25, 0x3d,
  0xa2, 0x56, 0xed, 0xbc, 0xbd, 0x65, 0x4a, 0xbb, 0xa9, 0x03, 0x87, 0xbd,
  0x53, 0x66, 0x0f, 0x3d, 0x63, 0x42, 0xf5, 0xbb, 0x16, 0x0f, 0xad, 0xbc,
  0x3e, 0x77, 0xcf, 0xbd, 0xf5, 0x7f, 0x0d, 0x3d, 0xf7, 0xad, 0xcf, 0x3c,
  0xff, 0x73, 0x0c, 0xbd, 0xaf, 0x4a, 0x35, 0xbd, 0xd1, 0xba, 0x1a, 0xbd,
  0x0a, 0xd8, 0xf7, 0x3d, 0xc2, 0x16, 0x2b, 0x3d, 0x5c, 0xf0, 0x73, 0x3c,
  0x61, 0x06, 0xd0, 0xbd, 0x80, 0x39, 0x35, 0xbd, 0xfe, 0x43, 0x58, 0xbd,
  0x3f, 0x8c, 0x32, 0xba, 0x50, 0x33, 0x05, 0xbd, 0x2f, 0x4a, 0x00, 0xbe,
  0x45, 0xf4, 0x03, 0xbe, 0xe7, 0x91, 0x43, 0x3e, 0x96, 0x3b, 0x47, 0xbd,
  0xa7, 0x23, 0x89, 0xbd, 0xad, 0x50, 0x8a, 0x3d, 0x50, 0x8a, 0xf4, 0xbd,
  0xe6, 0x5d, 0xc3, 0xbd, 0x05, 0xfe, 0xab, 0xbd, 0x38, 0xb3, 0x6c, 0xbd,
  0x95, 0x33, 0x15, 0x3d, 0xba, 0x97, 0x90, 0x3d, 0x36, 0xa0, 0x8b, 0xbd,
  0x16, 0xec, 0x0d, 0xbe, 0x1b, 0x45, 0x43, 0x3d, 0x3e, 0xd9, 0x55, 0xbb,
  0x81, 0xfe, 0x9e, 0x3b, 0xb2, 0x44, 0x5f, 0x3d, 0x0f, 0x89, 0x5e, 0xbd,
  0xba, 0x3a, 0x34, 0xbe, 0xd6, 0x55, 0xb8, 0x3c, 0x91, 0x35, 0x8c, 0x3c,
  0x2c, 0x51, 0x9a, 0xbd, 0x8b, 0x43, 0xb0, 0xbd, 0xe9, 0xa5, 0xaa, 0xbd,
  0xa6, 0x85, 0xe8, 0xbd, 0xb6, 0x44, 0x3e, 0x3d, 0x93, 0x21, 0x52, 0x3a,
  0x52, 0xb1, 0x33, 0xbc, 0xd6, 0x01, 0x9f, 0x3d, 0x57, 0x51, 0xaf, 0xbc,
  0xd8, 0x67, 0x21, 0xbd, 0x7d, 0x5d, 0xf2, 0x3d, 0x9d, 0xd3, 0x5c, 0xbd,
  0x4b, 0xfc, 0xdb, 0xbd, 0xda, 0xf9, 0x35, 0xbd, 0x23, 0x0a, 0xf8, 0x3d,
  0x34, 0x11, 0x08, 0x3e, 0x33, 0x63, 0x39, 0x3e, 0x53, 0xc7, 0x6d, 0xbd,
  0x91, 0x5f, 0x8c, 0xbd, 0x0a, 0xfd, 0x33, 0x3b, 0x9c, 0x97, 0x4a, 0x3c,
  0xdb, 0x16, 0xa3, 0x3d, 0x5b, 0x33, 0xc8, 0x3d, 0x6f, 0x71, 0x38, 0x3d,
  0x43, 0xf2, 0x87, 0x3c, 0x9d, 0xac, 0xf4, 0x3b, 0xf8, 0x2d, 0xce, 0xbc,
  0x04, 0x38, 0xd5, 0xbd, 0x66, 0x13, 0x35, 0x3d, 0x6e, 0x4c, 0xbb, 0xbd,
  0x98, 0x9c, 0xbb, 0xbc, 0xf7, 0x2d, 0x2b, 0xbd, 0xd0, 0xa3, 0xd2, 0x3c,
  0x22, 0x70, 0x9c, 0xbd, 0x5f, 0xf0, 0x97, 0x3d, 0x89, 0xfa, 0x02, 0xbe,
  0x0d, 0x6c, 0x7d, 0x3d, 0x41, 0xaf, 0x73, 0x3d, 0x12, 0x73, 0x49, 0xbd,
  0x4c, 0xc3, 0xa3, 0xbc, 0xe5, 0x67, 0xe9, 0x3d, 0x77, 0x53, 0x26, 0x3d,
  0x14, 0xe5, 0xb5, 0xbc, 0xa1, 0xef, 0xfd, 0x3c, 0x04, 0x29, 0x7e, 0x3d,
  0xee, 0xb5, 0x99, 0xbc, 0x7f, 0x43, 0x9d, 0x3d, 0x23, 0x0a, 0xd4, 0x3c,
  0x5b, 0xe1, 0x98, 0xbb, 0x92, 0x2c, 0x0e, 0x3d, 0x42, 0x50, 0xfa, 0xbd,
  0x48, 0xa9, 0xcd, 0xbd, 0xff, 0xbc, 0x11, 0x3e, 0x0b, 0x3d, 0xc5, 0xbb,
  0x53, 0xbc, 0xd1, 0xbc, 0x95, 0x33, 0xb9, 0x3c, 0x87, 0x0d, 0x9d, 0xbd,
  0x66, 0x8b, 0xc4, 0xbd, 0x96, 0x86, 0x25, 0x3e, 0xd6, 0x92, 0xd4, 0x3c,
  0x99, 0x39, 0xa7, 0xbd, 0x98, 0x73, 0x8f, 0xbd, 0x8d, 0xf8, 0x4f, 0xbc,
  0xd6, 0x92, 0x32, 0xbd, 0xff, 0x6a, 0x4d, 0x3d, 0xfb, 0xb5, 0x1c, 0xbe,
  0xd3, 0x23, 0x6d, 0xbd, 0x00, 0xbb, 0x25, 0xbd, 0x52, 0x32, 0x69, 0x3d,
  0xc0, 0x1f, 0x41, 0xbd, 0x39, 0x52, 0x8a, 0xbd, 0x31, 0x0d, 0x3f, 0x3e,
  0xd4, 0x6e, 0xe1, 0x3c, 0xf6, 0x0d, 0xf0, 0x3b, 0x42, 0x26, 0xa8, 0x3d,
  0xc5, 0x9e, 0x6c, 0xbe, 0x09, 0x25, 0x18, 0x38, 0x52, 0xe0, 0x5a, 0x3e,
  0x94, 0x45, 0x74, 0xbd, 0xf1, 0xce, 0xd9, 0xbb, 0x9c, 0x53, 0x08, 0xbd,
  0x1d, 0xb9, 0xae, 0xbd, 0x5d, 0x61, 0x82, 0xbd, 0x06, 0x30, 0x61, 0x3d,
  0x4f, 0x25, 0x0c, 0x3e, 0xa7, 0x0f, 0x61, 0xbd, 0xf3, 0xc2, 0x33, 0xbc,
  0x03, 0xde, 0x43, 0xbe, 0x2a, 0x44, 0x92, 0xbd, 0x41, 0x76, 0x5b, 0x3e,
  0x98, 0x1e, 0xa5, 0x3c, 0xd5, 0x76, 0x96, 0x3d, 0xcb, 0xad, 0x00, 0xbd,
  0x40, 0x1c, 0xc7, 0xbd, 0x64, 0x01, 0xa5, 0xbd, 0x4b, 0xc4, 0x89, 0x3d,
  0xad, 0x12, 0xd2, 0xbd, 0xe0, 0x6a, 0x23, 0xbd, 0xdf, 0x7c, 0x85, 0x3c,
  0xa5, 0xbc, 0x97, 0x3d, 0x7f, 0x8e, 0x03, 0xbe, 0x5f, 0x6f, 0xd7, 0x3d,
  0x33, 0x71, 0xd7, 0xbd, 0xe3, 0x0b, 0xb1, 0xbd, 0x69, 0xff, 0xc6, 0x3c,
  0x89, 0x6e, 0xa0, 0xbd, 0xa6, 0xe4, 0xb3, 0x3d, 0x0d, 0xfe, 0x99, 0x3c,
  0xb0, 0x2b, 0xc2, 0xbd, 0x03, 0x23, 0x82, 0x3d, 0xae, 0xa3, 0x0f, 0x3e,
  0xd0, 0xc7, 0xba, 0x3d, 0x17, 0xc9, 0xbb, 0xbc, 0x93, 0x83, 0xae, 0x3d,
  0xd1, 0xa5, 0xe1, 0xbc, 0xf3, 0xc8, 0x9a, 0x3a, 0x97, 0xf9, 0xb5, 0xbd,
  0x58, 0x4e, 0xf6, 0x3d, 0xa4, 0x1b, 0x9d, 0xbc, 0x04, 0x8b, 0x66, 0x3e,
  0x54, 0x48, 0x1d, 0xbd, 0xc5, 0x30, 0x64, 0xbc, 0xf5, 0xcc, 0x13, 0xbe,
  0xc6, 0x8a, 0x23, 0xbe, 0x6a, 0x5c, 0xea, 0xbc, 0x27, 0x5e, 0x3d, 0x3e,
  0x33, 0x9b, 0x6c, 0x3d, 0x07, 0xa8, 0xd2, 0x3b, 0xac, 0xe9, 0xb4, 0x3d,
  0x8b, 0xa8, 0x99, 0x3d, 0x73, 0x52, 0xc3, 0xbc, 0x61, 0xa2, 0x27, 0x3e,
  0xa5, 0x73, 0x0e, 0xbe, 0xe0, 0x9c, 0xb0, 0x3d, 0x3c, 0xda, 0xa3, 0xbb,
  0xae, 0x6d, 0x29, 0x3e, 0xb0, 0xb4, 0xd7, 0xbd, 0xf1, 0x11, 0x05, 0x3d,
  0xa7, 0xec, 0xea, 0x3a, 0x97, 0x44, 0x85, 0xba, 0xc7, 0xf2, 0x77, 0x3d,
  0xe0, 0xeb, 0xff, 0x3d, 0x5c, 0x62, 0x61, 0xbd, 0x19, 0xad, 0x52, 0x3e,
  0x98, 0x14, 0x8c, 0x3d, 0x8e, 0x37, 0xa2, 0x3c, 0xc7, 0x0a, 0x41, 0x3d,
  0x6c, 0xb5, 0x52, 0x3d, 0x02, 0x84, 0x04, 0x3e, 0x9a, 0xfa, 0x17, 0x3e,
  0x79, 0xcb, 0xc2, 0xbd, 0x8d, 0x71, 0xc3, 0x3c, 0xae, 0xa3, 0x85, 0x3b,
  0xf2, 0x10, 0x08, 0x3e, 0xba, 0x46, 0x7a, 0x3d, 0x15, 0xd2, 0x45, 0x3e,
  0xc4, 0x02, 0x11, 0x3e, 0x74, 0x81, 0x48, 0xbd, 0x8d, 0xb2, 0x79, 0xbd,
  0xf7, 0x5d, 0x12, 0x3c, 0x59, 0x12, 0xbf, 0xbd, 0x18, 0xa4, 0xeb, 0x3d,
  0x38, 0x01, 0xa4, 0x3d, 0x73, 0xe1, 0x63, 0xbd, 0x6b, 0x72, 0x6e, 0x3d,
  0xcc, 0xca, 0x6f, 0xbd, 0xd7, 0x80, 0x2d, 0x3e, 0xd6, 0xf6, 0x7b, 0x3c,
  0x62, 0x82, 0x86, 0x3d, 0x14, 0x39, 0x3c, 0xbe, 0xbe, 0x9c, 0xf2, 0x3c,
  0x7b, 0xf9, 0x35, 0xbd, 0x20, 0x70, 0x22, 0xbe, 0x1f, 0x72, 0x83, 0xbd,
  0x46, 0x15, 0xc3, 0xbd, 0x73, 0x8f, 0x88, 0xbc, 0x7b, 0x9d, 0x32, 0x3c,
  0xa4, 0x1b, 0x08, 0xbd, 0x9a, 0xff, 0x71, 0xbe, 0xe4, 0xe2, 0xea, 0x3c,
  0xa4, 0x7d, 0x85, 0xbd, 0x2d, 0xd4, 0x51, 0x3c, 0xaa, 0xd3, 0xf7, 0xbc,
  0x32, 0xec, 0x0c, 0x3c, 0xcf, 0xbe, 0xc6, 0xbd, 0x94, 0xef, 0xf5, 0xbd,
  0xa0, 0xbb, 0xdf, 0x3d, 0x67, 0xe7, 0x6a, 0xbd, 0x5b, 0xff, 0x98, 0x3d,
  0x99, 0xab, 0x0e, 0x3c, 0x5d, 0xf8, 0xce, 0x3c, 0xae, 0xa6, 0x42, 0x3d,
  0x88, 0xc7, 0xe5, 0xbb, 0x36, 0xaa, 0x51, 0x3d, 0x70, 0x6e, 0x2b, 0x3a,
  0x24, 0x7e, 0x8d, 0xbd, 0x4c, 0x35, 0xe0, 0xbd, 0x24, 0x3c, 0x28, 0x3d,
  0x2d, 0xb0, 0xcb, 0x3d, 0xf2, 0x15, 0x47, 0xbd, 0xdd, 0xe2, 0x9e, 0x3d,
  0x5f, 0x54, 0x43, 0x3d, 0x5f, 0xd6, 0xe1, 0xbc, 0xe8, 0xb2, 0x30, 0xbd,
  0x00, 0xac, 0x0e, 0x3c, 0x4a, 0x84, 0x17, 0x3d, 0x98, 0x77, 0xe5, 0xbd,
  0xe7, 0x1a, 0xf6, 0xbb, 0x35, 0x57, 0xf6, 0x3c, 0x82, 0x6c, 0x25, 0x3d,
  0x21, 0x9a, 0xf1, 0x3d, 0x3d, 0x65, 0xa4, 0xbd, 0x06, 0x85, 0x16, 0xbe,
  0xc4, 0x88, 0x5d, 0x3d, 0xb3, 0x35, 0xfb, 0xbd, 0x72, 0xe6, 0xb6, 0x3d,
  0x6e, 0x44, 0xfb, 0x3d, 0x0c, 0x39, 0xb7, 0xbd, 0x80, 0xb9, 0xef, 0xbc,
  0xef, 0xa9, 0x65, 0x3e, 0xaa, 0x5e, 0x3a, 0xbc, 0x4d, 0x74, 0xcc, 0x3d,
  0x9c, 0x63, 0x80, 0xbd, 0x0b, 0xb8, 0xed, 0x3c, 0x1a, 0x67, 0x03, 0x3d,
  0x19, 0xac, 0x06, 0x3d, 0xc4, 0x22, 0xd7, 0xbc, 0xce, 0x6e, 0x8b, 0xbd,
  0xdc, 0x6c, 0xbd, 0xbd, 0xd7, 0xa3, 0x2c, 0xbd, 0xb7, 0x86, 0xa9, 0x3d,
  0x6b, 0xb5, 0x1a, 0x3d, 0x59, 0x1c, 0xd6, 0xbd, 0x4b, 0x8d, 0xd3, 0xbd,
  0x18, 0x7f, 0x56, 0xbd, 0xc4, 0x2c, 0x34, 0x3d, 0x67, 0xd8, 0xd7, 0x3d,
  0x35, 0x48, 0xfc, 0xbc, 0x5d, 0xdf, 0xd7, 0xbd, 0xbc, 0xd6, 0x03, 0xbe,
  0x74, 0x97, 0x0b, 0xbe, 0x4d, 0x64, 0x48, 0xbd, 0x16, 0x41, 0xa3, 0xbb,
  0x15, 0xe1, 0xa3, 0xbd, 0x1a, 0xde, 0xe0, 0xbd, 0xc9, 0xc4, 0xba, 0xbc,
  0xa3, 0x87, 0x24, 0xbe, 0x13, 0xa6, 0x5c, 0xbd, 0xff, 0xe9, 0xc8, 0xbd,
  0xc6, 0x42, 0x30, 0xbd, 0x82, 0x60, 0x20, 0x3d, 0xcf, 0x27, 0x1f, 0xbe,
  0x25, 0xb6, 0x50, 0xbd, 0xfa, 0x6f, 0xdd, 0x3a, 0x8b, 0xb0, 0x8d, 0x3d,
  0x11, 0x3e, 0xf2, 0x3d, 0xbe, 0xa5, 0xe1, 0xbb, 0x20, 0x3b, 0x8e, 0x3d,
  0x32, 0xab, 0xc7, 0x3c, 0x3b, 0x48, 0x85, 0xbd, 0xe3, 0x64, 0x2c, 0x3d,
  0x48, 0x81, 0x00, 0xbd, 0xa7, 0xd2, 0xc7, 0xbd, 0x12, 0x4e, 0x87, 0x3c,
  0xc3, 0x85, 0x1c, 0x3d, 0x16, 0xc6, 0xa9, 0x3c, 0x3e, 0x20, 0x4c, 0xbd,
  0xff, 0x9a, 0xa8, 0x3d, 0x83, 0xe3, 0x49, 0xbd, 0x08, 0x12, 0xda, 0xbc,
  0xec, 0x09, 0xb4, 0xbc, 0x01, 0x06, 0xe7, 0x3d, 0xdd, 0x24, 0x15, 0x3c,
  0x27, 0x3f, 0x8b, 0xbd, 0x60, 0xab, 0x1a, 0xbe, 0x18, 0xea, 0x08, 0xbe,
  0x7b, 0x25, 0x7b, 0xbc, 0x71, 0x97, 0xa1, 0x3d, 0xf4, 0x39, 0x41, 0xbd,
  0xf8, 0x5f, 0x28, 0x3d, 0x24, 0xab, 0xc6, 0xbb, 0xdb, 0xfb, 0x68, 0x3c,
  0x4d, 0x65, 0xc0, 0x3d, 0xd8, 0xdd, 0x91, 0x3d, 0xd8, 0xb9, 0x9e, 0x3d,
  0x9b, 0xce, 0x52, 0xbd, 0xb9, 0x66, 0xe5, 0xbd, 0x72, 0x76, 0xef, 0x3b,
  0x50, 0x75, 0xe8, 0x3d, 0x7c, 0x98, 0xc3, 0xbb, 0x8a, 0x6c, 0x17, 0x3d,
  0xdf, 0xf9, 0xb1, 0x3c, 0x57, 0x56, 0x33, 0xbd, 0xe3, 0xd0, 0xa9, 0x3d,
  0xe1, 0x8c, 0xba, 0x3d, 0x3e, 0x73, 0x74, 0x3d, 0xca, 0x1d, 0xf8, 0xbc,
  0xd7, 0x1d, 0xe8, 0xbd, 0x93, 0x53, 0x67, 0x3d, 0x25, 0x69, 0x93, 0x3d,
  0xf0, 0x8e, 0x03, 0x3d, 0x22, 0xf4, 0x97, 0xbc, 0x01, 0xb5, 0x65, 0x3d,
  0xe9, 0x35, 0x9c, 0xba, 0x4f, 0x82, 0xeb, 0xbc, 0x8d, 0x86, 0x11, 0x3e,
  0xfb, 0xa9, 0x11, 0xbe, 0x59, 0xa9, 0xca, 0x3d, 0x0b, 0x21, 0xa9, 0xbd,
  0x26, 0x4c, 0xa4, 0xbd, 0xe4, 0x8d, 0x9a, 0x3d, 0x27, 0xd7, 0xb6, 0x3d,
  0x8c, 0x23, 0x8a, 0xbd, 0xad, 0x38, 0x36, 0xbd, 0xa9, 0x36, 0x9f, 0x3d,
  0x87, 0xb9, 0xc2, 0xbd, 0x85, 0x27, 0xe7, 0x3c, 0xae, 0x65, 0x21, 0xbd,
  0xe5, 0xab, 0xdf, 0x3d, 0x07, 0x4e, 0x31, 0x3b, 0x78, 0x7d, 0x11, 0x3d,
  0xc1, 0xd4, 0xee, 0xbd, 0xd2, 0x51, 0x26, 0xbe, 0x4d, 0x97, 0x14, 0xbd,
  0xf5, 0xb6, 0xee, 0x3b, 0xa9, 0xba, 0x0a, 0xbe, 0xbc, 0x3e, 0xfa, 0x3c,
  0x4f, 0x91, 0x79, 0x3d, 0x04, 0xf7, 0xde, 0x3c, 0xd3, 0x03, 0x02, 0x3e,
  0x63, 0x0f, 0xa0, 0x3d, 0x0a, 0xcf, 0xc7, 0x3d, 0xda, 0xba, 0x35, 0xbb,
  0x7c, 0x4c, 0xc2, 0x3c, 0x0a, 0x43, 0x25, 0x3d, 0x35, 0x8d, 0xf0, 0x3d,
  0x3e, 0x48, 0xcb, 0x3d, 0xe7, 0x35, 0xc9, 0x3d, 0x63, 0x59, 0x8f, 0x3d,
  0xdd, 0x4f, 0x93, 0xbb, 0xfa, 0xd4, 0x13, 0xbe, 0xa4, 0x3e, 0x60, 0x3d,
  0xc5, 0x06, 0xd1, 0x3d, 0x35, 0xad, 0xaa, 0x3c, 0x7d, 0xc4, 0xb3, 0xbd,
  0xab, 0x06, 0x6a, 0x3d, 0xad, 0xd5, 0x7f, 0xbd, 0x1a, 0xee, 0x99, 0x3d,
  0x92, 0xa7, 0xb2, 0xbd, 0xc1, 0xb2, 0x96, 0x3d, 0xea, 0x9a, 0xc5, 0x3c,
  0x88, 0xb7, 0x55, 0xbc, 0xc0, 0x71, 0x32, 0xbd, 0x02, 0x7c, 0xf4, 0xbd,
  0x1d, 0x13, 0x8b, 0x3d, 0x0a, 0x76, 0xbc, 0xbd, 0xeb, 0xa1, 0x1e, 0xbc,
  0x92, 0x68, 0xc0, 0xbc, 0x19, 0xa8, 0xbb, 0xbd, 0x0d, 0x46, 0xf4, 0xbd,
  0xe7, 0xef, 0xea, 0xbd, 0x33, 0x9a, 0x67, 0xbd, 0x84, 0x15, 0x56, 0x3c,
  0x29, 0x0a, 0x1d, 0xbe, 0x35, 0x3c, 0x16, 0x3e, 0xf7, 0xd8, 0x32, 0x3d,
  0x08, 0xb3, 0x49, 0xbb, 0x57, 0x15, 0x11, 0xbd, 0x7f, 0xd7, 0xb4, 0x3c,
  0x2b, 0x53, 0xd2, 0x3d, 0xd1, 0x89, 0x21, 0xbe, 0xbc, 0x80, 0x0d, 0xbe,
  0x60, 0xb7, 0x28, 0xbe, 0xf5, 0x96, 0x18, 0x3d, 0x61, 0x50, 0xd1, 0x3c,
  0x3f, 0x63, 0x9d, 0x3d, 0x6d, 0x1d, 0x32, 0xbe, 0x25, 0x27, 0x7f, 0xbd,
  0xbf, 0xee, 0x89, 0xbd, 0x7f, 0xbf, 0xe3, 0x3d, 0x00, 0xd2, 0xa0, 0xbd,
  0xce, 0x16, 0x5e, 0xbc, 0x5a, 0xbf, 0xdf, 0xbc, 0xde, 0xae, 0xee, 0xbd,
  0x17, 0xfb, 0x0d, 0xbe, 0x7a, 0x0b, 0x0d, 0x3e, 0xcf, 0x3c, 0xaa, 0x3d,
  0xa5, 0x22, 0x4a, 0x3e, 0xa2, 0x6f, 0x4d, 0x3d, 0x30, 0x9d, 0x5d, 0x3b,
  0xa3, 0x18, 0x72, 0x3c, 0x2a, 0x7d, 0x7b, 0xbc, 0x1b, 0x52, 0x1b, 0xbe,
  0x44, 0x4e, 0x9b, 0xbc, 0xc4, 0xce, 0xc4, 0xbb, 0x94, 0xa4, 0x0a, 0xbe,
  0xbe, 0xc3, 0xd1, 0x3c, 0x26, 0x1b, 0xaa, 0x3d, 0xd4, 0x73, 0xc1, 0x3d,
  0x68, 0x44, 0x9c, 0xbc, 0xb0, 0xab, 0x83, 0xbc, 0x27, 0x7a, 0x25, 0xbd,
  0x82, 0xb6, 0x42, 0xbd, 0xc6, 0xe8, 0xa8, 0xbd, 0xf8, 0xe4, 0x58, 0xbd,
  0x25, 0xe5, 0x2e, 0xbc, 0x49, 0xfd, 0xe7, 0xbd, 0x3a, 0x74, 0xad, 0x3b,
  0x37, 0x6d, 0x33, 0xbd, 0x3f, 0x25, 0xc2, 0x3d, 0xfd, 0x08, 0x69, 0xbc,
  0x18, 0xdc, 0x05, 0xbc, 0x7d, 0xb2, 0x85, 0xbd, 0x58, 0xf4, 0x23, 0x3d,
  0xeb, 0xb1, 0x38, 0xbd, 0x42, 0x39, 0xc9, 0x3d, 0xa5, 0x67, 0xe6, 0xbd,
  0xd1, 0xd3, 0xe6, 0x3c, 0xe0, 0x61, 0x45, 0x3c, 0x1c, 0xb2, 0x89, 0xbd,
  0xc8, 0xd2, 0xaf, 0x3c, 0x81, 0x11, 0x9b, 0xbc, 0x61, 0xb0, 0x81, 0xbd,
  0xd8, 0x4a, 0x34, 0xbb, 0xda, 0x20, 0xa2, 0x3d, 0xde, 0x3f, 0x12, 0xbe,
  0x72, 0x43, 0xd8, 0xbd, 0x33, 0x38, 0x6a, 0xbd, 0x94, 0x08, 0x77, 0xbc,
  0x2b, 0x51, 0xbe, 0xbd, 0x3f, 0x50, 0x3e, 0x3a, 0x77, 0xc1, 0xc1, 0xbb,
  0x62, 0xcb, 0x54, 0x3d, 0x42, 0xd1, 0x81, 0x3d, 0x52, 0x52, 0x8d, 0xbd,
  0xc5, 0x57, 0x23, 0xbc, 0xc4, 0x58, 0x0a, 0x3d, 0x3e, 0x2a, 0x9f, 0xbd,
  0xbc, 0x6b, 0x9d, 0xbd, 0xc1, 0x95, 0xf1, 0xbd, 0x9e, 0x13, 0x01, 0xbe,
  0xad, 0x4c, 0x61, 0x3d, 0x6f, 0xc6, 0x05, 0xbd, 0xcb, 0xdc, 0x4c, 0x3d,
  0x0d, 0x24, 0xd4, 0xbc, 0x50, 0xc8, 0x8e, 0xbc, 0x8f, 0x36, 0xe3, 0x3b,
  0x7e, 0x54, 0x4e, 0xbe, 0xcd, 0x98, 0xae, 0xbd, 0xbc, 0xcb, 0x0d, 0xbd,
  0x77, 0xde, 0x82, 0x3d, 0xac, 0x29, 0x90, 0x3d, 0xed, 0xbe, 0x70, 0xbc,
  0xa2, 0xff, 0xa6, 0xbd, 0x83, 0x5e, 0x07, 0xbd, 0xe4, 0x09, 0x15, 0xbd,
  0x5b, 0x24, 0x25, 0xbd, 0x7a, 0xba, 0xba, 0x3d, 0x5a, 0x47, 0x8b, 0xbb,
  0xb3, 0x66, 0x3e, 0xbc, 0x0d, 0x57, 0xe5, 0xbd, 0x32, 0xd6, 0x05, 0x3d,
  0x9d, 0xd3, 0xed, 0xbd, 0x8d, 0xb2, 0xba, 0x3d, 0x2d, 0x52, 0x3f, 0x3d,
  0x22, 0xb4, 0x1f, 0x3e, 0x06, 0xb4, 0xce, 0xbd, 0x27, 0x77, 0x23, 0x3c,
  0xbb, 0x2a, 0x9b, 0x3b, 0x04, 0x0a, 0xec, 0x3d, 0xc3, 0x3e, 0xeb, 0x3d,
  0xd0, 0x13, 0x2b, 0xbe, 0x6e, 0x44, 0x2d, 0xbd, 0x4c, 0xfa, 0x91, 0x3d,
  0x9a, 0x30, 0x02, 0x3c, 0xfc, 0xe4, 0xae, 0x3d, 0xe8, 0xab, 0xb8, 0xbd,
  0x46, 0x93, 0x20, 0xbd, 0x34, 0x6c, 0x64, 0xbd, 0x4c, 0xf4, 0x30, 0x3d,
  0xba, 0xb7, 0xd9, 0x3c, 0xe5, 0xd4, 0x98, 0x3d, 0xf0, 0x0c, 0xea, 0xbb,
  0xfa, 0x1c, 0x4d, 0xbc, 0xe4, 0x87, 0x33, 0xbd, 0xc9, 0xa2, 0x3a, 0x3c,
  0x91, 0xef, 0x25, 0x3d, 0x8a, 0x27, 0x8a, 0x3d, 0xe0, 0xfe, 0x17, 0x3d,
  0x47, 0x11, 0x77, 0x3d, 0x03, 0xd5, 0x82, 0xbc, 0x08, 0xc3, 0x95, 0x3d,
  0x1f, 0x5d, 0xbc, 0xbd, 0x5c, 0xa9, 0x0b, 0x3d, 0x30, 0xb3, 0xc6, 0x3c,
  0x75, 0x55, 0x41, 0xbe, 0xec, 0x68, 0xa5, 0x3c, 0xb7, 0xce, 0x33, 0xbd,
  0x00, 0xc7, 0x97, 0xbc, 0x8a, 0x10, 0x01, 0x3d, 0x51, 0xef, 0xa2, 0x3c,
  0x0b, 0xb7, 0xa2, 0xbd, 0x25, 0x35, 0x4c, 0xbe, 0xae, 0xd8, 0x97, 0x3d,
  0x81, 0x20, 0xf8, 0xbd, 0x0c, 0xec, 0x4e, 0x3a, 0x85, 0x4c, 0x07, 0xbd,
  0x61, 0x0d, 0x62, 0xbc, 0x1e, 0x9c, 0x92, 0x3d, 0x77, 0x56, 0x55, 0xbc,
  0x81, 0xf2, 0x1e, 0xbd, 0x00, 0xe5, 0x02, 0xbd, 0xa8, 0x20, 0x14, 0x3c,
  0x56, 0xb0, 0xba, 0xbb, 0x75, 0x93, 0xf9, 0x3d, 0xaf, 0x11, 0x56, 0x3d,
  0xc9, 0x20, 0x3c, 0xbd, 0x05, 0x14, 0x10, 0x3c, 0xaf, 0x6f, 0x03, 0x3d,
  0xf5, 0xbd, 0x90, 0xbd, 0x52, 0x5e, 0x1e, 0x3d, 0xdc, 0xc8, 0xfe, 0xbc,
  0xb4, 0xfc, 0x1a, 0xbd, 0x23, 0x2f, 0xb2, 0xbb, 0xc7, 0xc1, 0xe4, 0x3b,
  0x61, 0x5d, 0x00, 0xbe, 0xff, 0x19, 0x80, 0x3d, 0x28, 0xe4, 0xd0, 0x3d,
  0x93, 0x0e, 0xfa, 0xbc, 0xee, 0x54, 0xda, 0x3d, 0xcf, 0x53, 0xb3, 0x3c,
  0xe0, 0x73, 0xd7, 0x3d, 0x8d, 0x02, 0x37, 0xbe, 0xb5, 0xae, 0x00, 0xbc,
  0x85, 0xe3, 0x2d, 0x3e, 0x3b, 0xd2, 0x5d, 0xbd, 0xb2, 0xaf, 0x6a, 0xbd,
  0x28, 0x2a, 0x94, 0xbd, 0x9f, 0xf7, 0x50, 0xbd, 0xf5, 0x8b, 0xfc, 0x3d,
  0x6a, 0xd0, 0x16, 0x3e, 0x5f, 0xd2, 0xcb, 0xbc, 0xd0, 0x4e, 0xae, 0x3c,
  0x43, 0x60, 0x84, 0xbd, 0x32, 0xdc, 0x97, 0xbd, 0x09, 0xd1, 0x67, 0x3d,
  0x8f, 0xe1, 0x3f, 0x3d, 0x80, 0x01, 0xa9, 0xbd, 0x63, 0x9f, 0x51, 0x3d,
  0xd7, 0x4f, 0xe3, 0xbd, 0x25, 0x27, 0x89, 0xbe, 0x22, 0x08, 0x18, 0xbd,
  0x44, 0xf6, 0xea, 0xbc, 0x39, 0x0b, 0xd9, 0x3c, 0x70, 0xb5, 0xdf, 0x3d,
  0x35, 0x86, 0x3b, 0xbd, 0x61, 0xce, 0xbe, 0xbd, 0xa5, 0xc2, 0x4b, 0x3d,
  0xe7, 0xd7, 0xe7, 0xbd, 0xe2, 0xdf, 0x16, 0x3e, 0xeb, 0x6c, 0x87, 0xbd,
  0x02, 0xb3, 0xe0, 0xbd, 0x01, 0xad, 0x33, 0xbd, 0x97, 0xa6, 0xab, 0xbc,
  0x2b, 0xb1, 0xb7, 0xbd, 0x42, 0x2b, 0x79, 0x3c, 0xe2, 0xf4, 0xbd, 0xbc,
  0xb2, 0x5b, 0xf6, 0xbc, 0x82, 0x7c, 0x8e, 0x3d, 0xd5, 0xe8, 0xf8, 0x3d,
  0x2f, 0xc7, 0x02, 0x3c, 0xf6, 0x0d, 0x23, 0x3c, 0xcc, 0x64, 0x14, 0x3d,
  0x74, 0xc6, 0x09, 0x3d, 0x9f, 0x9d, 0xba, 0xbd, 0x2b, 0xc2, 0x18, 0x3d,
  0xd1, 0xdc, 0xc5, 0x39, 0x12, 0x6c, 0xd0, 0x3d, 0x73, 0xac, 0x9d, 0x3d,
  0xd9, 0x3c, 0x82, 0xbd, 0x14, 0x87, 0xaa, 0xbd, 0x83, 0x38, 0x4e, 0xbd,
  0xb9, 0xe6, 0xd1, 0xbc, 0x03, 0xf9, 0x91, 0x3d, 0xab, 0x50, 0xa9, 0xbd,
  0x07, 0x25, 0xf5, 0xbd, 0x85, 0x2d, 0x77, 0xbd, 0x01, 0x99, 0x64, 0x3d,
  0x62, 0x3e, 0xad, 0x3d, 0x78, 0xc0, 0xef, 0x3c, 0x4c, 0xe0, 0xe4, 0xbc,
  0x85, 0x28, 0x80, 0xbc, 0xa7, 0x34, 0xdc, 0xbd, 0x5e, 0x2a, 0xfc, 0xbb,
  0xf6, 0xf2, 0xab, 0xbd, 0xe5, 0xbe, 0x27, 0xbd, 0x6b, 0x05, 0xed, 0xbc,
  0x5d, 0x53, 0xd7, 0xbd, 0x55, 0x53, 0x5d, 0xbc, 0xf4, 0x6d, 0x33, 0x3e,
  0x34, 0xd8, 0xd4, 0xbd, 0xcd, 0xdd, 0xcb, 0xbc, 0xef, 0x38, 0xd3, 0xbc,
  0x76, 0xed, 0x02, 0xbe, 0x70, 0xae, 0xac, 0x3d, 0xa2, 0x3b, 0xf4, 0x3c,
  0xee, 0x32, 0x4b, 0xbd, 0xc2, 0x90, 0x6e, 0x3d, 0x85, 0xcd, 0xb6, 0x3d,
  0x2f, 0x2d, 0xee, 0xbc, 0xf3, 0xbf, 0x14, 0xbe, 0xbe, 0x73, 0x2b, 0x3d,
  0x17, 0x39, 0x17, 0xbe, 0x97, 0x21, 0x56, 0xbd, 0x08, 0xa9, 0x6e, 0xbd,
  0x72, 0x47, 0x05, 0xbd, 0xf7, 0x02, 0x99, 0xbd, 0x86, 0xf9, 0x12, 0x3e,
  0x85, 0xb3, 0x29, 0x3d, 0x25, 0x4e, 0xee, 0x3c, 0x53, 0x3a, 0x26, 0xbc,
  0x6e, 0x63, 0x99, 0xbd, 0x6f, 0x53, 0x1c, 0x3d, 0x7a, 0x05, 0x9d, 0x3d,
  0x84, 0xf5, 0xfa, 0x3d, 0x72, 0xd5, 0x87, 0x3c, 0xa0, 0xae, 0x5c, 0x3d,
  0xe3, 0x5e, 0x10, 0xbd, 0x43, 0x36, 0xd6, 0xbc, 0xf8, 0xe9, 0x37, 0x3d,
  0x2b, 0x3e, 0x3a, 0x3d, 0xdd, 0xc4, 0xc9, 0xbb, 0x79, 0xe3, 0xd6, 0x3d,
  0xea, 0x1e, 0xcd, 0xbd, 0xb2, 0x75, 0x07, 0xbe, 0x4c, 0x02, 0x45, 0x3d,
  0x67, 0x08, 0x85, 0xbc, 0x86, 0xca, 0x2b, 0x3d, 0xe8, 0xd1, 0xaf, 0x3d,
  0x8b, 0x0f, 0xdb, 0xbc, 0xe8, 0xad, 0x24, 0xbd, 0xaa, 0x75, 0x06, 0x3e,
  0xb3, 0x3e, 0xce, 0x3d, 0xb7, 0x38, 0x31, 0x3d, 0x58, 0x95, 0x57, 0x3d,
  0x7d, 0xb4, 0x13, 0x3d, 0x21, 0xf7, 0xb9, 0xba, 0x77, 0x58, 0x9b, 0x3d,
  0xc9, 0xb9, 0xfd, 0xbd, 0xf7, 0xf9, 0x98, 0x3c, 0x52, 0x8c, 0xcf, 0xbc,
  0x6f, 0x04, 0x58, 0xbd, 0x7b, 0x78, 0xd7, 0x3c, 0x5f, 0x17, 0x7d, 0x3e,
  0x51, 0x8f, 0xdb, 0x3d, 0x90, 0xf0, 0xcc, 0xbc, 0xcc, 0x12, 0x91, 0x3c,
  0xc0, 0x7d, 0x88, 0x3d, 0x07, 0x38, 0xea, 0xbd, 0xc2, 0x02, 0x6d, 0x3e,
  0x96, 0xed, 0xee, 0x3c, 0xfd, 0x33, 0xb1, 0x3d, 0x42, 0x8c, 0x39, 0x3d,
  0x5a, 0x8a, 0xc7, 0xbc, 0x9d, 0xb9, 0xb2, 0xbd, 0x4a, 0xf7, 0x3e, 0x3e,
  0x80, 0xf3, 0xb6, 0x3d, 0x06, 0xf9, 0x59, 0xbd, 0x18, 0x16, 0xe8, 0xbb,
  0x62, 0xcb, 0x02, 0x3e, 0x10, 0x43, 0x6c, 0x3c, 0x1a, 0x71, 0x82, 0x3d,
  0x60, 0x63, 0x1d, 0x3d, 0xfc, 0xbf, 0x50, 0x3c, 0x29, 0x9c, 0x1c, 0x3e,
  0x74, 0x10, 0xaf, 0x3d, 0xbe, 0xdd, 0xe1, 0xbc, 0xa7, 0x1f, 0xdc, 0x3d,
  0x33, 0x35, 0xef, 0x3c, 0x41, 0xb2, 0x95, 0xbd, 0xa2, 0xcc, 0x83, 0xbc,
  0xc5, 0x7b, 0x20, 0x3e, 0x65, 0x29, 0x90, 0xbc, 0x41, 0x77, 0x03, 0x3e,
  0xf2, 0x01, 0xca, 0xbc, 0x2a, 0xae, 0x85, 0xbd, 0x7d, 0xb1, 0xda, 0x3d,
  0x5b, 0xd9, 0x43, 0x3e, 0x78, 0x48, 0xfe, 0x3c, 0x38, 0x25, 0xeb, 0x3d,
  0x2a, 0x5e, 0x9c, 0x3c, 0xeb, 0xf1, 0x82, 0xbd, 0xd5, 0x81, 0x01, 0xbd,
  0xe4, 0x31, 0x68, 0x3e, 0xd0, 0x42, 0x83, 0x3d, 0x69, 0x86, 0x1a, 0x3e,
  0x60, 0xb7, 0x8c, 0xbc, 0xef, 0xe9, 0xf4, 0x3d, 0xff, 0x5c, 0x79, 0xbd,
  0xa9, 0x4f, 0x15, 0x3e, 0x7e, 0x2a, 0x6b, 0x3d, 0x97, 0x86, 0x81, 0x3d,
  0xf5, 0xcb, 0x6a, 0x3d, 0x8a, 0x6d, 0x20, 0x3d, 0x1c, 0x65, 0xa0, 0xbb,
  0x75, 0x5d, 0x3c, 0xbc, 0x66, 0xdf, 0xe1, 0x3d, 0x56, 0x58, 0x8b, 0x3c,
  0x9a, 0x98, 0x93, 0x3d, 0x2c, 0x26, 0xef, 0xbc, 0x5e, 0x57, 0xfb, 0xbd,
  0xc5, 0x74, 0xca, 0x3d, 0x4d, 0xcf, 0x78, 0xbd, 0x23, 0x7b, 0x16, 0x3e,
  0x9f, 0x66, }
