const unsigned char model[] = {
  0x1c, 0x00, 0x00, 0x00, 0x54, 0x46, 0x4c, 0x33, 0x00, 0x00, 0x12, 0x00,
  0x1c, 0x00, 0x04, 0x00, 0x08, 0x00, 0x0c, 0x00, 0x10, 0x00, 0x14, 0x00,
  0x00, 0x00, 0x18, 0x00, 0x12, 0x00, 0x00, 0x00, 0x03, 0x00, 0x00, 0x00,
  0x98, 0x24, 0x00, 0x00, 0xa4, 0x1c, 0x00, 0x00, 0x8c, 0x1c, 0x00, 0x00,
  0x3c, 0x00, 0x00, 0x00, 0x04, 0x00, 0x00, 0x00, 0x01, 0x00, 0x00, 0x00,
  0x0c, 0x00, 0x00, 0x00, 0x08, 0x00, 0x0c, 0x00, 0x04, 0x00, 0x08, 0x00,
  0x08, 0x00, 0x00, 0x00, 0x08, 0x00, 0x00, 0x00, 0x0c, 0x00, 0x00, 0x00,
  0x13, 0x00, 0x00, 0x00, 0x6d, 0x69, 0x6e, 0x5f, 0x72, 0x75, 0x6e, 0x74,
  0x69, 0x6d, 0x65, 0x5f, 0x76, 0x65, 0x72, 0x73, 0x69, 0x6f, 0x6e, 0x00,
  0x0d, 0x00, 0x00, 0x00, 0x44, 0x1c, 0x00, 0x00, 0x28, 0x1c, 0x00, 0x00,
  0xe8, 0x1b, 0x00, 0x00, 0x9c, 0x1b, 0x00, 0x00, 0xc4, 0x1a, 0x00, 0x00,
  0xbc, 0x1a, 0x00, 0x00, 0xbc, 0x17, 0x00, 0x00, 0xb4, 0x17, 0x00, 0x00,
  0xac, 0x17, 0x00, 0x00, 0x2c, 0x00, 0x00, 0x00, 0x24, 0x00, 0x00, 0x00,
  0x1c, 0x00, 0x00, 0x00, 0x04, 0x00, 0x00, 0x00, 0x56, 0xe3, 0xff, 0xff,
  0x04, 0x00, 0x00, 0x00, 0x05, 0x00, 0x00, 0x00, 0x31, 0x2e, 0x35, 0x2e,
  0x30, 0x00, 0x00, 0x00, 0x38, 0xe3, 0xff, 0xff, 0x3c, 0xe3, 0xff, 0xff,
  0x72, 0xe3, 0xff, 0xff, 0x04, 0x00, 0x00, 0x00, 0x70, 0x17, 0x00, 0x00,
  0xee, 0x04, 0x25, 0xea, 0x1f, 0x21, 0x15, 0x3a, 0x33, 0xed, 0x17, 0x19,
  0xf5, 0xf0, 0xf8, 0xea, 0x19, 0x0c, 0xdc, 0xdd, 0x22, 0x3d, 0xed, 0x17,
  0xd8, 0xea, 0x15, 0x2c, 0xd5, 0x0e, 0xbd, 0x1b, 0x05, 0xf0, 0xde, 0x11,
  0xec, 0x26, 0x08, 0x0a, 0x1d, 0x32, 0x2d, 0x0f, 0x2e, 0x18, 0x42, 0xfc,
  0x31, 0x09, 0xcc, 0x08, 0x2e, 0x15, 0x3a, 0xd4, 0x2a, 0x1d, 0xfd, 0xe8,
  0x2a, 0xea, 0xd9, 0xc8, 0x15, 0x30, 0x3b, 0x05, 0xe3, 0xfc, 0xcd, 0x04,
  0x12, 0xfd, 0xcf, 0xfc, 0x23, 0x1c, 0xf3, 0x0f, 0xc6, 0x05, 0xd0, 0xe2,
  0x16, 0xef, 0x08, 0x08, 0x34, 0xdb, 0x01, 0x13, 0xee, 0x10, 0x12, 0xf8,
  0xec, 0x02, 0xeb, 0x0f, 0xc4, 0x1b, 0x27, 0xf5, 0xf4, 0x39, 0xc8, 0x24,
  0x32, 0x2f, 0x2c, 0xfc, 0xc2, 0x1d, 0x08, 0x05, 0xde, 0x0e, 0x04, 0x45,
  0x03, 0x25, 0xef, 0x33, 0xf6, 0xc0, 0x1a, 0xe5, 0x1e, 0x08, 0x10, 0xf3,
  0xa8, 0xf8, 0x57, 0xf1, 0x1e, 0x00, 0xd2, 0xfc, 0x0b, 0x1f, 0x31, 0x0d,
  0xed, 0xf2, 0xfa, 0x28, 0x2b, 0xb7, 0x03, 0xce, 0x3e, 0xfd, 0x34, 0x2d,
  0xf5, 0x26, 0xfc, 0x37, 0xfa, 0xd0, 0xda, 0xd4, 0xe1, 0xfe, 0x4d, 0xb3,
  0xc8, 0xdc, 0x2e, 0x08, 0x1d, 0xdc, 0x0f, 0x29, 0x49, 0x2a, 0x30, 0xf0,
  0x19, 0x2d, 0x40, 0x2a, 0xd5, 0xe3, 0xef, 0x54, 0x2e, 0x3c, 0xec, 0x3a,
  0xd8, 0x0e, 0x3a, 0x22, 0xf4, 0x2d, 0xc7, 0x19, 0x46, 0xfd, 0x05, 0x22,
  0x41, 0x2b, 0x2c, 0x5d, 0xba, 0x13, 0xfd, 0x3a, 0xf4, 0xe8, 0x0a, 0xf4,
  0xca, 0x21, 0x33, 0x0c, 0xd8, 0x1f, 0xd0, 0x15, 0xd1, 0x15, 0x21, 0xe1,
  0xe6, 0xfc, 0xf0, 0x0d, 0xcb, 0xd4, 0xf0, 0x43, 0xf7, 0xff, 0xd9, 0xcf,
  0xff, 0xef, 0xde, 0xe9, 0xfd, 0xf6, 0xce, 0xac, 0x0d, 0xf0, 0xf9, 0xba,
  0xee, 0xcf, 0x48, 0x0d, 0x45, 0xfb, 0xcd, 0xe9, 0x06, 0x10, 0x2f, 0xf6,
  0x15, 0xcf, 0x15, 0xc8, 0x61, 0xc8, 0x00, 0xd1, 0x33, 0x12, 0xef, 0xf9,
  0xf1, 0x41, 0x15, 0xdc, 0xfe, 0xd9, 0xe6, 0xf5, 0x09, 0x09, 0x0a, 0xf2,
  0xe6, 0x00, 0x49, 0x1c, 0x22, 0xe9, 0xd2, 0x05, 0xfd, 0x3d, 0x15, 0xc6,
  0xf4, 0x37, 0x2d, 0x16, 0xcc, 0xeb, 0xba, 0xd6, 0x13, 0xd7, 0xd9, 0xd1,
  0xea, 0xf7, 0xe8, 0x34, 0xfc, 0x0b, 0xd5, 0x0c, 0xf8, 0x2f, 0xe1, 0xfd,
  0xf5, 0xda, 0xe6, 0x36, 0x11, 0x0a, 0x3f, 0x03, 0xe3, 0xf2, 0xde, 0xfd,
  0xca, 0xe0, 0xe8, 0x4c, 0x07, 0x08, 0xd9, 0xd2, 0x03, 0xd9, 0x09, 0xe2,
  0xf6, 0xf0, 0xfe, 0x04, 0xde, 0xea, 0x12, 0x0f, 0xf4, 0x38, 0x1e, 0xf4,
  0xe2, 0xe2, 0x0e, 0x0c, 0x57, 0xcd, 0xdc, 0xdc, 0x3e, 0xe7, 0x17, 0x37,
  0xae, 0xba, 0xcd, 0xf9, 0x42, 0x3c, 0xeb, 0xeb, 0xfd, 0xbb, 0x57, 0x0c,
  0xe6, 0xf4, 0x24, 0xd5, 0x52, 0xdf, 0x14, 0x0f, 0xf2, 0xe5, 0x32, 0x06,
  0xf0, 0x02, 0x22, 0xef, 0x2f, 0xf0, 0xb4, 0x21, 0xe2, 0x0a, 0x16, 0xc3,
  0xe5, 0xf6, 0xe0, 0x15, 0x16, 0x00, 0xcd, 0xfb, 0xb5, 0x20, 0xf4, 0xb4,
  0x88, 0xd0, 0x25, 0xd7, 0xfa, 0xc5, 0xa7, 0xec, 0x27, 0xb3, 0x1f, 0xce,
  0x9b, 0xce, 0x0b, 0x9c, 0x4d, 0xde, 0xfb, 0xbd, 0xf5, 0x27, 0x49, 0xd6,
  0x13, 0xcd, 0x0d, 0xcf, 0xfd, 0x04, 0x15, 0x09, 0xf1, 0xd1, 0xf7, 0xd0,
  0x08, 0xb6, 0xdd, 0x00, 0xfb, 0xeb, 0x4c, 0x17, 0xf5, 0xe1, 0x22, 0xd9,
  0x2e, 0x13, 0xe3, 0x06, 0xf4, 0xd6, 0x24, 0x0d, 0x49, 0x09, 0x26, 0xcc,
  0x1b, 0x23, 0x04, 0x03, 0xc3, 0x1d, 0xe9, 0xeb, 0xfe, 0xdc, 0xf0, 0x41,
  0x14, 0x36, 0x1f, 0xcc, 0xb3, 0x44, 0x03, 0x69, 0x17, 0xcd, 0x81, 0x3b,
  0xb2, 0x19, 0x2e, 0x05, 0x9c, 0xfb, 0xf3, 0x2a, 0xf0, 0x3f, 0x8f, 0x3e,
  0x4e, 0x0c, 0xc4, 0xfd, 0xee, 0x0d, 0x32, 0xf0, 0xa5, 0x0d, 0xc7, 0x48,
  0x05, 0xcb, 0xc3, 0x12, 0xa1, 0x2f, 0x1e, 0x45, 0xeb, 0xde, 0xae, 0x15,
  0x13, 0xea, 0xd3, 0xf3, 0xd4, 0x3b, 0x18, 0x12, 0xd8, 0xd8, 0xc3, 0x4a,
  0x29, 0x38, 0xbd, 0x02, 0xd1, 0x05, 0x19, 0xed, 0xe1, 0x26, 0xe9, 0x0d,
  0xe0, 0x25, 0xc7, 0x17, 0x0d, 0x03, 0xcd, 0x21, 0x07, 0x09, 0x2c, 0x19,
  0xf8, 0x01, 0xf3, 0x2b, 0xfc, 0x1a, 0xb6, 0xf0, 0xab, 0xf2, 0xcc, 0x5e,
  0x17, 0x2a, 0xc1, 0x19, 0x0b, 0x5e, 0xb3, 0xd9, 0xdc, 0xdf, 0xcc, 0x4c,
  0x10, 0x0d, 0x1d, 0xb8, 0x12, 0xee, 0x0a, 0xf4, 0xf3, 0xc0, 0x08, 0xfe,
  0xe5, 0x16, 0xd9, 0xb8, 0x10, 0xf2, 0xd0, 0xce, 0xbc, 0xf0, 0xda, 0x32,
  0x15, 0x0d, 0xb4, 0xf1, 0xb2, 0x32, 0xc0, 0x51, 0xd6, 0xfb, 0xf7, 0x3c,
  0xe8, 0xdd, 0xc8, 0xea, 0xdb, 0x03, 0xde, 0xe5, 0x0e, 0xf5, 0xf7, 0xf4,
  0xd7, 0xe0, 0xb8, 0x02, 0x3b, 0xcc, 0xba, 0xe6, 0xbc, 0xed, 0x1d, 0xd1,
  0x00, 0xd2, 0xfe, 0xaa, 0xf7, 0xf0, 0xdb, 0xce, 0xf6, 0xaf, 0x11, 0xc9,
  0xbb, 0xc3, 0xf5, 0xae, 0x25, 0x34, 0x07, 0xe5, 0xbc, 0xea, 0x08, 0xec,
  0xbc, 0xee, 0x1d, 0xd3, 0xdc, 0xee, 0x02, 0x25, 0xd3, 0xbc, 0x21, 0xcd,
  0x16, 0xdb, 0x9a, 0x1c, 0xf6, 0xee, 0x00, 0x18, 0xef, 0xf6, 0xec, 0xd9,
  0x43, 0xd7, 0xea, 0xd4, 0xf4, 0x0d, 0xff, 0xe1, 0x41, 0x14, 0x21, 0x20,
  0x13, 0x07, 0x11, 0xb2, 0xec, 0xf3, 0xc7, 0xc7, 0x07, 0xcb, 0x16, 0x1f,
  0xcc, 0xfb, 0xbd, 0xa6, 0x11, 0xdc, 0x08, 0xe8, 0xdb, 0xbd, 0xf2, 0x04,
  0x27, 0x2a, 0xd0, 0xe6, 0xd6, 0x4c, 0xd2, 0xeb, 0xc8, 0xd6, 0xfe, 0xf7,
  0x18, 0xee, 0xeb, 0xe5, 0x23, 0xeb, 0xa2, 0xff, 0x2d, 0x12, 0x49, 0x01,
  0xae, 0x09, 0xa3, 0x06, 0x37, 0xd0, 0xee, 0x04, 0x17, 0x1a, 0x0d, 0x03,
  0xf8, 0xd5, 0xf3, 0xd1, 0xd9, 0x26, 0xe0, 0x0a, 0x16, 0xd7, 0xf7, 0xe6,
  0xe2, 0x96, 0xec, 0xd6, 0xfc, 0xb8, 0xe4, 0xa9, 0xf9, 0xde, 0x21, 0x0b,
  0x02, 0x02, 0xdf, 0xb3, 0x42, 0xec, 0x0f, 0xbb, 0xfa, 0x16, 0xc4, 0xe8,
  0xd4, 0x00, 0xf3, 0xd1, 0x25, 0xe8, 0x10, 0xd4, 0x25, 0x2b, 0xe1, 0x1a,
  0x11, 0x27, 0x18, 0xd0, 0xca, 0x0b, 0xef, 0xae, 0xeb, 0x06, 0x05, 0xfa,
  0x23, 0x07, 0xf6, 0xbc, 0xe9, 0x2d, 0xff, 0xe4, 0x36, 0xec, 0xcc, 0x15,
  0x0d, 0x0d, 0xf4, 0xf9, 0xfc, 0xfa, 0x22, 0xf4, 0x09, 0xff, 0xc0, 0x3e,
  0xf1, 0x14, 0xce, 0xfd, 0xf8, 0x0b, 0x0e, 0x4d, 0xe4, 0xef, 0xd8, 0x18,
  0x15, 0xd7, 0x07, 0xf8, 0xf3, 0xef, 0xe9, 0x04, 0xcd, 0x17, 0xfc, 0x1c,
  0xe5, 0x01, 0xa6, 0x02, 0x3b, 0xfd, 0x23, 0xc8, 0xcb, 0x24, 0xec, 0x0b,
  0x24, 0xfb, 0xea, 0xf9, 0x25, 0x0b, 0xee, 0xd8, 0xdd, 0x0c, 0x27, 0x13,
  0x3a, 0x13, 0xec, 0x21, 0xfc, 0x33, 0xee, 0x2e, 0xe5, 0xfa, 0x2e, 0xe0,
  0xc9, 0xdd, 0x13, 0xcf, 0x1d, 0xe4, 0xda, 0xdf, 0xdb, 0xdc, 0xf9, 0x0b,
  0xe7, 0x19, 0xdd, 0xe5, 0xf4, 0x3b, 0x04, 0x1a, 0xfd, 0xfb, 0xf1, 0x18,
  0x2a, 0xc8, 0x04, 0xf3, 0x1d, 0x08, 0x15, 0xc4, 0xe0, 0xef, 0x0d, 0x09,
  0xe2, 0xdd, 0xda, 0x00, 0xd5, 0xd1, 0xfc, 0xd7, 0x30, 0x33, 0xff, 0x40,
  0x08, 0xfd, 0x06, 0x03, 0x25, 0x17, 0x04, 0xe4, 0x2f, 0xe4, 0x2e, 0x0a,
  0x1e, 0x16, 0xf1, 0x30, 0xf1, 0x08, 0xee, 0x02, 0xe4, 0x11, 0x0a, 0xe7,
  0x17, 0xd2, 0xe6, 0x0a, 0xef, 0x0b, 0x17, 0xde, 0x2f, 0x11, 0x1e, 0xfa,
  0x2b, 0x1b, 0x23, 0xf6, 0xf6, 0x07, 0x25, 0x0c, 0xf4, 0x22, 0xd5, 0xce,
  0x2c, 0x28, 0xe5, 0xdc, 0x25, 0xec, 0x16, 0x0d, 0xfa, 0xd5, 0x44, 0xf5,
  0x44, 0xf6, 0x0d, 0x1a, 0xe1, 0x2f, 0x12, 0xcf, 0x26, 0x12, 0xff, 0x38,
  0x12, 0xde, 0xf1, 0x09, 0x1a, 0xfe, 0x09, 0x04, 0xce, 0xe7, 0xdb, 0xc9,
  0x2c, 0x39, 0xe2, 0xe9, 0xbe, 0xef, 0x09, 0x32, 0x39, 0xf4, 0xee, 0x25,
  0x06, 0x3e, 0xb8, 0xd9, 0x00, 0xeb, 0xbb, 0x04, 0x46, 0xd0, 0x26, 0xd7,
  0xe9, 0x32, 0x18, 0x19, 0xfd, 0xce, 0xd8, 0xfb, 0x29, 0x0f, 0xe5, 0x07,
  0xcf, 0xd8, 0x0f, 0x31, 0x35, 0xfe, 0x06, 0xee, 0xe8, 0xf3, 0x29, 0x23,
  0x3c, 0x30, 0xf0, 0xbe, 0x1f, 0x05, 0xd9, 0xe8, 0x00, 0xf5, 0x22, 0x12,
  0xca, 0xd3, 0x28, 0x46, 0xfb, 0xf1, 0xbf, 0x07, 0x3e, 0xe5, 0x0a, 0xe7,
  0xd5, 0x15, 0xf4, 0xdc, 0x25, 0xe5, 0xe0, 0x03, 0xcd, 0x3a, 0x3b, 0x02,
  0x1a, 0x10, 0x2d, 0xe0, 0x4c, 0x0d, 0xe7, 0xed, 0xfa, 0x2f, 0x0e, 0xc4,
  0xcb, 0xf9, 0x2d, 0xf2, 0x16, 0x24, 0x0f, 0x24, 0xfb, 0xf3, 0x01, 0xe1,
  0xe1, 0xf5, 0x17, 0x07, 0xd8, 0xae, 0xe6, 0xd1, 0xf9, 0xf7, 0x0c, 0xd4,
  0x0b, 0xf9, 0xf1, 0x0c, 0x16, 0x1f, 0x3f, 0xd5, 0xdb, 0xe9, 0x19, 0x1e,
  0xfb, 0x0f, 0x39, 0x01, 0x12, 0x15, 0x18, 0x04, 0x44, 0xc8, 0x37, 0xce,
  0xcd, 0xf0, 0xc2, 0x3a, 0xdb, 0x17, 0x0d, 0xf2, 0x15, 0x18, 0x38, 0x26,
  0xdf, 0xe7, 0x3f, 0xfd, 0x1d, 0xe8, 0xbf, 0xf8, 0xf0, 0x3c, 0x42, 0x05,
  0xd6, 0x05, 0x19, 0x1d, 0xf4, 0xff, 0xfc, 0xb5, 0x05, 0xfa, 0x3a, 0x01,
  0xf5, 0xec, 0xf2, 0xf9, 0x2a, 0xe2, 0xc9, 0xec, 0x25, 0x13, 0x0c, 0x30,
  0xfe, 0xf6, 0x4b, 0xff, 0x12, 0xe4, 0xea, 0x16, 0x0c, 0x1d, 0xfb, 0xce,
  0xfd, 0x07, 0x01, 0x49, 0xd3, 0x0e, 0xd6, 0x27, 0x0a, 0x48, 0xe1, 0x18,
  0x19, 0x37, 0x0a, 0x1f, 0x05, 0x0f, 0xf4, 0x34, 0x15, 0x06, 0xc5, 0x05,
  0x0c, 0xd1, 0x0f, 0x0e, 0xdb, 0x16, 0x13, 0xe4, 0x1a, 0xe7, 0xf4, 0xc1,
  0xf3, 0x00, 0xdc, 0x20, 0xf4, 0xe0, 0xb1, 0xf6, 0x35, 0xe5, 0xec, 0xcb,
  0xfa, 0xd5, 0x03, 0x29, 0x0e, 0xff, 0x0a, 0x12, 0x26, 0x10, 0xed, 0xb4,
  0x32, 0x1c, 0xd6, 0x18, 0xfd, 0x1f, 0xf2, 0xf5, 0x13, 0x0f, 0x43, 0x35,
  0xf6, 0x0a, 0x05, 0xdb, 0x08, 0x35, 0x3d, 0x21, 0xd3, 0x08, 0xeb, 0xc9,
  0x29, 0x15, 0x00, 0x23, 0xf6, 0x02, 0xe6, 0xfd, 0x1c, 0xea, 0x0b, 0x13,
  0xfa, 0xda, 0x44, 0x10, 0x0b, 0x23, 0xd5, 0x00, 0xea, 0x23, 0x25, 0xfc,
  0x30, 0x19, 0x11, 0x03, 0x18, 0xd6, 0x3c, 0xfa, 0xd6, 0x02, 0xfa, 0xd9,
  0xe6, 0xd2, 0xf6, 0xf0, 0xec, 0x17, 0x0b, 0xfb, 0x1c, 0x33, 0x04, 0x2b,
  0x38, 0x36, 0x20, 0x06, 0x2c, 0x3f, 0x07, 0x0f, 0x38, 0xc6, 0xfb, 0x0f,
  0xd6, 0x19, 0x0b, 0x11, 0x20, 0x15, 0xd6, 0x40, 0xf7, 0x20, 0xc1, 0xfc,
  0x1f, 0x0b, 0xfc, 0xd2, 0xfd, 0x27, 0x00, 0xfe, 0x17, 0xc0, 0x03, 0xf9,
  0x0d, 0xdc, 0xe1, 0xe3, 0xc9, 0xf6, 0xea, 0x2b, 0xd5, 0x13, 0x0c, 0xf8,
  0xc3, 0x51, 0x52, 0x2a, 0x01, 0x01, 0x0f, 0x57, 0x4a, 0xc4, 0xf9, 0x20,
  0xd8, 0x3d, 0x6e, 0xeb, 0xf6, 0x45, 0xdc, 0x6c, 0x2d, 0xfb, 0x11, 0x2d,
  0x1c, 0x3d, 0xd8, 0xd7, 0x0c, 0x2d, 0x0b, 0x2a, 0x18, 0x1b, 0x11, 0x07,
  0x2a, 0x48, 0xc3, 0xfd, 0x0d, 0xf8, 0x4b, 0x33, 0xd1, 0x32, 0xca, 0x21,
  0xf6, 0x1d, 0xfb, 0x21, 0xc9, 0x55, 0x55, 0x43, 0x1f, 0x0c, 0xdc, 0x06,
  0x24, 0xe6, 0x2b, 0xf6, 0xe2, 0x3a, 0x25, 0x1e, 0x02, 0x29, 0xe7, 0x06,
  0x05, 0x2b, 0x04, 0xf3, 0xff, 0xd4, 0x1b, 0x30, 0x23, 0x51, 0x03, 0x05,
  0x40, 0x44, 0x2b, 0xee, 0xe9, 0x1b, 0xf2, 0x1e, 0x07, 0xe8, 0x13, 0x09,
  0x0d, 0x3c, 0xea, 0x03, 0x13, 0x36, 0xc8, 0x12, 0xfd, 0xf4, 0x36, 0x12,
  0x0a, 0x1e, 0x1e, 0xd3, 0x1f, 0x29, 0x19, 0x36, 0xe5, 0x0a, 0x2f, 0x48,
  0xc8, 0xf1, 0xdb, 0x6b, 0xfc, 0x0b, 0xe6, 0x23, 0x1d, 0x1e, 0xe7, 0x14,
  0x3e, 0x30, 0x2b, 0xed, 0xe3, 0x2e, 0xf8, 0x23, 0x08, 0xfd, 0x2d, 0x13,
  0xd9, 0xe9, 0x33, 0xd7, 0xee, 0xba, 0x14, 0xf7, 0xdc, 0x1c, 0x26, 0xd0,
  0xbb, 0xea, 0x3c, 0xe8, 0x03, 0xd4, 0xfc, 0x19, 0x43, 0x38, 0xf3, 0xf1,
  0x12, 0x00, 0x19, 0xf1, 0x1e, 0x32, 0x11, 0x02, 0x32, 0x24, 0xda, 0x35,
  0x1b, 0xe9, 0x1b, 0x31, 0xe2, 0xf5, 0xfc, 0x15, 0x07, 0x50, 0x1e, 0xcb,
  0x35, 0x26, 0xfc, 0x26, 0x2a, 0xf1, 0xf5, 0xe9, 0x01, 0x35, 0xf5, 0xf6,
  0xe8, 0x3e, 0x4e, 0xf8, 0x29, 0x43, 0xd6, 0x38, 0x33, 0x57, 0xfa, 0x03,
  0xcb, 0x11, 0x1d, 0x03, 0xf8, 0xd1, 0xc9, 0xe8, 0xef, 0xd9, 0x24, 0x29,
  0xcc, 0x23, 0xdd, 0x02, 0xe9, 0x15, 0xe0, 0xf8, 0x10, 0xce, 0x00, 0x12,
  0x3c, 0xe5, 0x0e, 0xd7, 0xd4, 0x3c, 0xf4, 0x1d, 0x01, 0xe2, 0xce, 0x2d,
  0xd5, 0xcd, 0xbd, 0xe9, 0xa8, 0x1e, 0xef, 0x07, 0xfd, 0xfd, 0xa9, 0x29,
  0xe8, 0x35, 0xfe, 0x13, 0xf4, 0x51, 0xe0, 0x0e, 0xe2, 0x1b, 0x06, 0x3a,
  0xed, 0xf3, 0x02, 0xb8, 0xbd, 0xd9, 0x0f, 0xe7, 0xf4, 0xcb, 0xbe, 0x3d,
  0xd4, 0xd4, 0x8a, 0xe4, 0x34, 0x0a, 0xcc, 0xf5, 0xdd, 0x25, 0xfd, 0x1c,
  0xee, 0xdc, 0x8f, 0xe4, 0x1c, 0xd1, 0xf2, 0xe4, 0xdc, 0xfb, 0xf4, 0x12,
  0xfd, 0xd7, 0xf3, 0xd8, 0xcd, 0x1d, 0x40, 0xf1, 0xc4, 0xfc, 0xed, 0xb3,
  0x09, 0xce, 0xfb, 0x0a, 0xf7, 0x37, 0xc3, 0xdf, 0xa3, 0xbc, 0x33, 0x13,
  0xf2, 0x33, 0xda, 0x1f, 0x14, 0x04, 0x21, 0xfd, 0x1a, 0x17, 0xfa, 0x12,
  0xea, 0xf1, 0xbb, 0xcb, 0x18, 0xdb, 0xf5, 0xde, 0xdb, 0xca, 0xe1, 0x34,
  0x1d, 0xf8, 0xdb, 0x38, 0xef, 0xd7, 0xd3, 0xcf, 0xd0, 0xd4, 0xd6, 0xf9,
  0x0d, 0x2b, 0xec, 0xf1, 0xef, 0x30, 0xbc, 0xe4, 0xf6, 0xf2, 0xd0, 0xf0,
  0x1d, 0xdd, 0x15, 0xf3, 0xee, 0xb0, 0x0f, 0x23, 0xde, 0x18, 0xf1, 0xfd,
  0x2c, 0x06, 0xf9, 0xcf, 0x29, 0x01, 0xe2, 0xfe, 0x16, 0xec, 0xf2, 0xff,
  0xf9, 0x12, 0xfc, 0x45, 0xd7, 0x2a, 0xf7, 0x31, 0x2a, 0x1b, 0x26, 0x23,
  0x23, 0x14, 0x08, 0x31, 0x28, 0x19, 0x3a, 0x4b, 0x21, 0xfe, 0x13, 0x0a,
  0x11, 0x47, 0x11, 0x4b, 0xfa, 0x28, 0xff, 0x15, 0xf7, 0x14, 0xd4, 0x25,
  0x11, 0x20, 0xf7, 0x27, 0x16, 0xff, 0xeb, 0x36, 0x0c, 0x2b, 0xec, 0x13,
  0xb2, 0xf5, 0xbd, 0xe3, 0xd7, 0xea, 0xc0, 0x14, 0xec, 0x1f, 0x09, 0x06,
  0xd4, 0x0e, 0x13, 0x4f, 0xc7, 0x1f, 0xb7, 0xfa, 0x0d, 0xe8, 0x0d, 0x10,
  0x0e, 0xed, 0x08, 0xe9, 0x14, 0x05, 0x0d, 0x15, 0xe8, 0xc1, 0x19, 0xd0,
  0xe7, 0x39, 0x25, 0x11, 0x45, 0xe9, 0xe1, 0x2b, 0x0f, 0xea, 0x32, 0xf0,
  0xf0, 0xf3, 0x0d, 0xeb, 0xff, 0xeb, 0xbc, 0x12, 0x0a, 0xf2, 0x2b, 0xd9,
  0xe3, 0xf2, 0x1a, 0xdc, 0x03, 0x11, 0xf8, 0x11, 0xdd, 0xd0, 0xdf, 0xcc,
  0xbe, 0x17, 0xff, 0xde, 0xff, 0xf2, 0xe0, 0x3d, 0xe3, 0x0f, 0xfb, 0x33,
  0x0b, 0x38, 0xd3, 0x1a, 0x35, 0xee, 0xf9, 0x1f, 0x04, 0x0e, 0x1e, 0x20,
  0x02, 0x33, 0x0c, 0xd6, 0x00, 0x25, 0x0d, 0x06, 0x05, 0xbb, 0x32, 0x22,
  0xeb, 0x2c, 0x10, 0xcb, 0xd4, 0x09, 0x18, 0xf3, 0x16, 0x15, 0xbb, 0x01,
  0xfb, 0x21, 0x28, 0x06, 0x19, 0xde, 0x0d, 0x15, 0x02, 0xec, 0xef, 0xc6,
  0xf4, 0xee, 0xed, 0x06, 0x0b, 0x07, 0xbd, 0x30, 0x15, 0x1d, 0xc2, 0x06,
  0xf4, 0xee, 0x02, 0x0f, 0x02, 0xcd, 0x23, 0xeb, 0xdc, 0x0d, 0x1c, 0x03,
  0x14, 0x09, 0xfe, 0xf6, 0x10, 0x0e, 0xdf, 0x37, 0x00, 0xf2, 0xff, 0xf5,
  0xc0, 0xc0, 0xeb, 0x05, 0xe5, 0x07, 0x0e, 0x37, 0xc1, 0x05, 0x14, 0x3d,
  0xd6, 0xd6, 0x3d, 0x3d, 0xe8, 0x29, 0x05, 0xfe, 0xc1, 0x18, 0x08, 0xe3,
  0xd0, 0x12, 0x2a, 0xe2, 0xfb, 0xe8, 0x17, 0x01, 0x2b, 0xea, 0xf7, 0x3e,
  0x2f, 0x0a, 0x09, 0xb6, 0x0c, 0x24, 0xfc, 0xb6, 0x06, 0xd8, 0x38, 0xc9,
  0xd8, 0xf3, 0x36, 0xe9, 0xc6, 0xfa, 0xd9, 0xed, 0xe9, 0x26, 0x0c, 0xea,
  0xfc, 0xba, 0x32, 0xfa, 0xde, 0xe7, 0xdb, 0xf0, 0x34, 0x37, 0xdb, 0xec,
  0x4d, 0x17, 0x07, 0x00, 0xdf, 0x1f, 0x1c, 0x26, 0x23, 0xcf, 0xe6, 0x2e,
  0xf1, 0xc9, 0x0c, 0x18, 0x06, 0xf7, 0xe3, 0xee, 0x0d, 0xf0, 0x0f, 0xfe,
  0xd6, 0xe6, 0xb9, 0x0a, 0x25, 0x08, 0xc2, 0xd2, 0x01, 0x31, 0x29, 0xe6,
  0xb8, 0xde, 0xd3, 0xc3, 0x6e, 0x04, 0xf0, 0xb0, 0xe4, 0xde, 0x5f, 0xe9,
  0xf5, 0x20, 0xe1, 0x21, 0x39, 0xbf, 0xc8, 0x04, 0xe6, 0xe9, 0x23, 0x2a,
  0x00, 0xfe, 0x1c, 0xc2, 0xfe, 0xc8, 0xbc, 0x0e, 0xf4, 0xf2, 0x1e, 0xd8,
  0xc1, 0xd3, 0xd5, 0x24, 0x10, 0xfa, 0xe6, 0x0f, 0x9c, 0xe0, 0x50, 0xd7,
  0xd9, 0xfc, 0xe0, 0xf3, 0x1a, 0x09, 0xd9, 0xe5, 0x08, 0xc9, 0xfd, 0xb1,
  0xc5, 0xd2, 0x34, 0xdf, 0x06, 0x19, 0xf8, 0xb4, 0xe4, 0xab, 0x06, 0xe9,
  0xde, 0xc4, 0xd7, 0x01, 0x2c, 0xcc, 0xd6, 0x11, 0x33, 0xf4, 0x1f, 0x17,
  0xdf, 0xce, 0xd8, 0x00, 0x00, 0xe2, 0x17, 0xf8, 0xce, 0xed, 0xc0, 0xd9,
  0xd5, 0xce, 0xf5, 0xcf, 0xfc, 0x0f, 0x51, 0xe3, 0x66, 0x38, 0x0b, 0x01,
  0xe5, 0xf7, 0xf2, 0x1f, 0x25, 0x0b, 0x14, 0x35, 0xdb, 0x26, 0x1d, 0x3a,
  0xaf, 0x1b, 0x1d, 0x08, 0x1d, 0xc7, 0xae, 0x15, 0xee, 0x2e, 0x25, 0xd1,
  0x1f, 0xf6, 0x21, 0xf9, 0x1c, 0xfd, 0x03, 0xeb, 0x17, 0x20, 0x5d, 0x33,
  0xd6, 0xf6, 0x41, 0x2a, 0xf9, 0x2e, 0xf8, 0xf3, 0x08, 0xdc, 0x0a, 0xef,
  0xfc, 0xfd, 0x3f, 0x28, 0xf2, 0xf5, 0x0b, 0x0a, 0x33, 0x11, 0x27, 0x03,
  0xed, 0x1c, 0x0a, 0xe2, 0x04, 0xdb, 0xb5, 0x22, 0x09, 0xe2, 0x06, 0xea,
  0x2c, 0x2d, 0x0f, 0x42, 0xfc, 0xf7, 0x0f, 0xd6, 0x4c, 0xfa, 0xf0, 0xee,
  0x08, 0x0b, 0x4f, 0xff, 0xed, 0xfa, 0x05, 0x11, 0xed, 0x0c, 0x25, 0xf8,
  0xe6, 0xcf, 0x38, 0xf8, 0x0c, 0x20, 0xa9, 0xbc, 0xe7, 0x23, 0xf4, 0xcc,
  0x15, 0x2d, 0x38, 0x19, 0x12, 0x28, 0x2e, 0xeb, 0xdf, 0xeb, 0x1c, 0xca,
  0xee, 0x26, 0x0b, 0x03, 0xe6, 0xe4, 0xe0, 0xff, 0xfc, 0x33, 0xf3, 0x1a,
  0x34, 0x62, 0xf8, 0xe5, 0xda, 0xfe, 0x0f, 0x50, 0x2f, 0xcc, 0x07, 0xf9,
  0x1a, 0xe6, 0x18, 0x52, 0xf9, 0xce, 0x32, 0x0f, 0xd9, 0xf0, 0xea, 0xf0,
  0x15, 0xff, 0xb1, 0xed, 0x24, 0x2e, 0x3c, 0x22, 0x47, 0x27, 0xa5, 0x1e,
  0x1b, 0xfc, 0x34, 0x1c, 0x1f, 0x2d, 0x61, 0x16, 0x2e, 0x38, 0xd9, 0x30,
  0x2d, 0x47, 0xed, 0x2f, 0xf7, 0x60, 0x5b, 0x3b, 0xf5, 0x46, 0xfa, 0x0f,
  0xd5, 0x51, 0x24, 0x6f, 0xef, 0x3f, 0x07, 0x0e, 0xfa, 0x64, 0xe6, 0x0c,
  0xfb, 0x48, 0x22, 0x50, 0xc3, 0x4e, 0xc5, 0x07, 0x0f, 0x3f, 0xf4, 0x3e,
  0xbd, 0x34, 0x43, 0x3c, 0x09, 0x5f, 0xa8, 0xf2, 0x00, 0x5b, 0x0c, 0x41,
  0x9d, 0x32, 0xe5, 0x16, 0x13, 0x1c, 0xc6, 0x2a, 0xb7, 0x0f, 0xf9, 0x28,
  0xf0, 0x0a, 0xe2, 0x38, 0xb0, 0xd7, 0xe5, 0x1a, 0xe5, 0x00, 0xf9, 0x2f,
  0x0a, 0xdc, 0xef, 0x1c, 0xc5, 0x04, 0x12, 0x10, 0x1b, 0x2e, 0xd7, 0x29,
  0xeb, 0x0a, 0x21, 0xeb, 0xe7, 0x22, 0xe4, 0xea, 0xe5, 0x3f, 0xe5, 0xeb,
  0x43, 0x03, 0xd0, 0xb0, 0x22, 0xea, 0x48, 0x25, 0xcd, 0x07, 0xdf, 0xd4,
  0x49, 0x2e, 0x05, 0x1b, 0xd0, 0x04, 0xe2, 0x22, 0xbd, 0xc7, 0xd7, 0x1d,
  0x23, 0xf5, 0x0c, 0xc9, 0x12, 0xee, 0x4d, 0x10, 0xf8, 0xef, 0xf9, 0xf2,
  0xf6, 0x28, 0xf4, 0x01, 0x12, 0xe2, 0xf8, 0x06, 0xf5, 0x14, 0xf8, 0x44,
  0x04, 0x06, 0xfe, 0xf9, 0xf0, 0x20, 0xb3, 0x01, 0x07, 0x01, 0x07, 0xe2,
  0x18, 0x0d, 0xca, 0x25, 0xfd, 0x16, 0xde, 0x31, 0x39, 0xf2, 0x1b, 0x08,
  0x22, 0x3e, 0xfd, 0xdf, 0x12, 0xec, 0x16, 0x17, 0xc3, 0x07, 0x1a, 0x33,
  0x22, 0x0e, 0xd0, 0x30, 0x25, 0xe7, 0xcb, 0x05, 0x05, 0x15, 0x39, 0x07,
  0x3a, 0x39, 0x04, 0x20, 0xf4, 0xdd, 0x02, 0xf8, 0x39, 0x19, 0x0b, 0x3d,
  0x0c, 0xff, 0x29, 0xf7, 0x0e, 0xb5, 0x20, 0xfa, 0x38, 0xe9, 0xfa, 0xce,
  0xcc, 0xf5, 0xef, 0xdf, 0x1b, 0x0e, 0xe1, 0xf9, 0x3d, 0xff, 0xe6, 0xf4,
  0x14, 0x36, 0x31, 0xff, 0x0b, 0x26, 0x1a, 0x21, 0xf9, 0xf6, 0xff, 0x1e,
  0x19, 0x35, 0x1e, 0x10, 0xbc, 0x50, 0xe9, 0x1e, 0xe3, 0x3e, 0xe2, 0x04,
  0xd6, 0x57, 0x3f, 0x1c, 0x25, 0x09, 0xe7, 0x0a, 0x08, 0x20, 0xe9, 0xdc,
  0xfc, 0x08, 0x0a, 0x47, 0x02, 0x13, 0x0e, 0x07, 0x0d, 0x36, 0x0d, 0x39,
  0xec, 0x29, 0xbf, 0x34, 0x1c, 0x22, 0xd5, 0x23, 0xfd, 0x09, 0xde, 0x1c,
  0x97, 0x1a, 0x0e, 0x11, 0xea, 0x08, 0xa7, 0x13, 0x0a, 0x05, 0x36, 0x4a,
  0xdc, 0xe9, 0xd5, 0xb5, 0x04, 0x0c, 0x0e, 0xd7, 0xd4, 0xef, 0x19, 0xf4,
  0x1f, 0xf4, 0xf5, 0xf6, 0xec, 0xd5, 0xf0, 0xbe, 0xe4, 0x13, 0xda, 0x11,
  0xbc, 0xf8, 0xea, 0x12, 0xd2, 0x45, 0xbe, 0x06, 0xd9, 0x09, 0x0f, 0x13,
  0xef, 0xf4, 0x30, 0xf5, 0x47, 0xe0, 0xea, 0xf7, 0x18, 0xd8, 0xfc, 0xc0,
  0xc6, 0xf9, 0xd2, 0xc8, 0x24, 0x2f, 0xb0, 0xf3, 0xcb, 0xdb, 0x2f, 0x0b,
  0xd0, 0x01, 0xd6, 0xe9, 0x28, 0xcf, 0xd4, 0xc6, 0xaf, 0xa1, 0x05, 0x1a,
  0xe5, 0xf6, 0xd5, 0x9b, 0x18, 0xcc, 0x24, 0xbc, 0xcc, 0xdf, 0xd9, 0xd0,
  0x00, 0xde, 0x35, 0x05, 0xd1, 0xd3, 0xf5, 0x2b, 0x9d, 0x29, 0x22, 0xcf,
  0xd3, 0xc6, 0xd7, 0xf5, 0x11, 0x00, 0x0c, 0x07, 0x06, 0xf3, 0x05, 0x0d,
  0x44, 0xf3, 0xf0, 0xf8, 0xd9, 0x00, 0xe1, 0xd6, 0xfc, 0xca, 0xe4, 0xf9,
  0xe2, 0x36, 0x2e, 0x24, 0x0c, 0xe3, 0xcb, 0xe6, 0x05, 0x0a, 0x26, 0x28,
  0xf7, 0xb0, 0xda, 0xef, 0x72, 0xde, 0x0d, 0xe6, 0xe3, 0x13, 0x46, 0xcb,
  0x1f, 0x3d, 0xe5, 0x1a, 0x44, 0xfe, 0xe6, 0xf6, 0x52, 0xda, 0x2c, 0xf8,
  0xb0, 0x44, 0xf0, 0x0a, 0x19, 0x13, 0xde, 0x08, 0x1b, 0xef, 0x2d, 0x09,
  0xb8, 0xfa, 0x30, 0x30, 0x2c, 0xcd, 0xeb, 0xea, 0x10, 0x07, 0xef, 0xa3,
  0xc0, 0x0a, 0x11, 0x0e, 0x21, 0xb4, 0x10, 0xdc, 0x42, 0x25, 0xfe, 0xda,
  0xc8, 0xc2, 0x41, 0xc8, 0x40, 0xe5, 0xed, 0xd1, 0x2a, 0x0f, 0x13, 0xd9,
  0xfa, 0xe9, 0xc0, 0xb5, 0xf8, 0xea, 0x22, 0xb7, 0x39, 0xef, 0xd6, 0xbd,
  0xfe, 0xc9, 0xd1, 0xbd, 0xf0, 0xb6, 0xf2, 0xe0, 0x29, 0xf8, 0xc2, 0xc4,
  0x02, 0xcd, 0xe9, 0x1e, 0xda, 0xce, 0xee, 0xe2, 0xf7, 0x3d, 0xe4, 0xfa,
  0x05, 0xd3, 0x1e, 0xfb, 0xe6, 0xbe, 0xd9, 0x06, 0x03, 0x06, 0x0e, 0xe4,
  0x01, 0xde, 0xa4, 0xf5, 0x3e, 0x40, 0xce, 0x48, 0xe9, 0xc4, 0xf6, 0x3c,
  0xef, 0x19, 0xff, 0xf7, 0x38, 0x0c, 0xc8, 0xe7, 0xe6, 0x0f, 0xcd, 0xfe,
  0x00, 0x37, 0x10, 0x15, 0xe1, 0x1e, 0x12, 0x3b, 0xdc, 0xd8, 0xed, 0x26,
  0xdf, 0xf0, 0x06, 0x02, 0xf3, 0xbb, 0xa3, 0xff, 0xfb, 0xd1, 0xd5, 0xfd,
  0xde, 0x18, 0x07, 0x01, 0x3f, 0x08, 0xd0, 0xf1, 0xd6, 0xe0, 0x26, 0xda,
  0x0f, 0xca, 0x1d, 0xcc, 0xe8, 0xef, 0x05, 0x01, 0x10, 0xd0, 0xdf, 0xd0,
  0x17, 0x02, 0xda, 0xd8, 0x06, 0x0f, 0xbd, 0xec, 0xfa, 0xdf, 0x02, 0xef,
  0xc7, 0x0e, 0xd1, 0xee, 0xfd, 0xf6, 0xd2, 0x07, 0xbd, 0xd5, 0x27, 0xdf,
  0x14, 0x39, 0x1d, 0xdf, 0x31, 0xe3, 0xca, 0xd7, 0x36, 0x0e, 0x19, 0x12,
  0xd6, 0xf5, 0xf7, 0xdc, 0x55, 0x1d, 0x08, 0xbb, 0x04, 0x1e, 0x35, 0x03,
  0xd6, 0xb6, 0xe7, 0xc6, 0x3c, 0xf8, 0x02, 0xd9, 0xde, 0xf5, 0x20, 0xe3,
  0x28, 0x13, 0xbe, 0xc3, 0x03, 0xeb, 0xf9, 0x03, 0x41, 0xf1, 0x09, 0x2b,
  0xd3, 0xf7, 0x0a, 0x11, 0x4f, 0xc6, 0xe3, 0x18, 0xe1, 0xe7, 0x25, 0xf7,
  0xba, 0x0f, 0x00, 0xf2, 0x12, 0x05, 0xb7, 0x2d, 0xe5, 0xf7, 0x08, 0x04,
  0xa8, 0xd1, 0xee, 0x16, 0xf7, 0xd4, 0xdd, 0x0b, 0x15, 0x0b, 0x01, 0xf3,
  0x97, 0xae, 0xd8, 0x20, 0x32, 0xbf, 0xdf, 0xf0, 0x27, 0xec, 0x06, 0x2e,
  0x31, 0x07, 0x35, 0x17, 0x47, 0xea, 0xee, 0xd9, 0x2c, 0xee, 0xc1, 0xff,
  0xf9, 0xe5, 0x18, 0x00, 0x0d, 0xf5, 0xe2, 0x0e, 0x0e, 0xd8, 0x27, 0x16,
  0x00, 0xfa, 0x26, 0x18, 0x22, 0xbb, 0x06, 0xae, 0x0f, 0xfc, 0x0d, 0xeb,
  0xfe, 0x12, 0xe2, 0xfc, 0x22, 0x0f, 0xe1, 0xf2, 0x38, 0xc3, 0xfa, 0x06,
  0x30, 0xb7, 0xc4, 0x35, 0xf9, 0xfa, 0x21, 0xf4, 0xfd, 0x14, 0x01, 0x28,
  0x05, 0x05, 0x07, 0xfa, 0xd3, 0xd0, 0xd1, 0xfb, 0x2f, 0xd4, 0x0c, 0xf8,
  0xf5, 0xd4, 0x02, 0x10, 0xdd, 0x03, 0x27, 0x48, 0x0f, 0xe7, 0x0f, 0x17,
  0x1a, 0xff, 0xcd, 0xbb, 0x2c, 0x01, 0x34, 0x03, 0x28, 0x04, 0xdd, 0x2f,
  0xe3, 0xf4, 0x1a, 0xff, 0xf0, 0x00, 0xee, 0xf9, 0x20, 0xd5, 0xfa, 0x20,
  0xba, 0xfd, 0x20, 0x09, 0x3b, 0x23, 0x04, 0x25, 0xc9, 0xf9, 0x06, 0x15,
  0x13, 0xee, 0xdb, 0xe6, 0x15, 0xf8, 0xe8, 0xfd, 0xf6, 0x3f, 0xf5, 0x00,
  0x12, 0x2b, 0x2e, 0x06, 0xfc, 0xf1, 0xf4, 0xf9, 0xd9, 0xe4, 0x22, 0xd7,
  0x33, 0xe8, 0xd2, 0x10, 0xeb, 0xee, 0x07, 0x15, 0xf7, 0xdb, 0xde, 0x04,
  0x27, 0xbb, 0xf8, 0xc6, 0xe6, 0x2a, 0xf7, 0x16, 0xcc, 0xef, 0xc7, 0xd0,
  0xed, 0x1b, 0x1f, 0x25, 0xd0, 0xee, 0xdd, 0xd8, 0x19, 0xf2, 0xc9, 0x04,
  0xc3, 0xe3, 0x23, 0xcc, 0xc1, 0xdb, 0x21, 0x01, 0xfe, 0xf7, 0xcd, 0xd6,
  0xf0, 0xee, 0xc3, 0xde, 0xf9, 0x08, 0x04, 0xf1, 0xba, 0xe6, 0x0c, 0x0f,
  0xef, 0x23, 0xca, 0x18, 0xf8, 0x30, 0x28, 0x2a, 0xec, 0x0d, 0xdf, 0x13,
  0x16, 0x11, 0xec, 0x07, 0xd8, 0xfd, 0x12, 0xe3, 0xfb, 0x0e, 0x16, 0xbb,
  0x0c, 0x1b, 0x02, 0x2f, 0xec, 0xc7, 0x03, 0xe0, 0xf0, 0xf5, 0x05, 0xd3,
  0x23, 0xe2, 0xf8, 0xec, 0xc3, 0x0f, 0x01, 0xe1, 0x3e, 0x07, 0xf4, 0x2a,
  0xe5, 0xe0, 0xf1, 0xfd, 0xda, 0xfd, 0xf9, 0x44, 0x1a, 0xdf, 0x04, 0x3c,
  0x16, 0x0d, 0xcb, 0xf0, 0xf9, 0x0a, 0x23, 0x30, 0x0b, 0x01, 0xe6, 0x0e,
  0x06, 0x07, 0x09, 0xeb, 0xe7, 0xfd, 0x22, 0x1d, 0xf8, 0x2f, 0xdb, 0x01,
  0xe3, 0x3b, 0x19, 0x29, 0xd0, 0xee, 0xf9, 0x20, 0x50, 0xe9, 0xdc, 0x23,
  0xe0, 0x14, 0x07, 0xd9, 0xd4, 0x1c, 0x03, 0xf6, 0xf9, 0xd2, 0x0f, 0x3a,
  0xfa, 0xfd, 0x04, 0x2d, 0xfe, 0x51, 0xeb, 0x52, 0x17, 0x13, 0xe1, 0xd5,
  0x1a, 0x35, 0x23, 0xf5, 0xb8, 0x2f, 0xdb, 0x22, 0x2b, 0xd4, 0xea, 0x0c,
  0x2e, 0x2b, 0xd2, 0x05, 0x0e, 0x06, 0x1f, 0x15, 0xf9, 0x06, 0xfd, 0x26,
  0x18, 0x3b, 0xee, 0xd4, 0x0e, 0x0b, 0x38, 0xfd, 0x1f, 0x21, 0x23, 0x11,
  0xf8, 0x07, 0xcf, 0x10, 0x02, 0x0c, 0xfa, 0x24, 0xb7, 0xeb, 0xf2, 0x22,
  0xd1, 0x05, 0xea, 0x14, 0xf8, 0x12, 0xe1, 0x18, 0x02, 0x1b, 0x05, 0xf1,
  0x20, 0x26, 0x0c, 0xea, 0xdb, 0x00, 0xd4, 0x01, 0x01, 0xec, 0xf0, 0x00,
  0x08, 0xf4, 0xf5, 0x22, 0x25, 0x1c, 0xaf, 0x26, 0x1c, 0xf8, 0xfd, 0x1b,
  0x20, 0xd5, 0x08, 0xd9, 0xcc, 0x0b, 0xc8, 0xff, 0xeb, 0xef, 0x28, 0x31,
  0x0d, 0x47, 0xf1, 0x02, 0xe3, 0x03, 0xaf, 0xee, 0x14, 0xf6, 0x2b, 0xe6,
  0xd5, 0xf1, 0x03, 0xf3, 0xc6, 0xe5, 0xf1, 0x03, 0x3a, 0xb8, 0x25, 0x30,
  0x17, 0xfe, 0x07, 0x2c, 0xfa, 0x2d, 0xcf, 0x25, 0xb8, 0xea, 0x23, 0xd3,
  0xee, 0x26, 0xef, 0xf6, 0xde, 0x14, 0xd2, 0xd3, 0xf6, 0xe3, 0x0c, 0x22,
  0xf3, 0x2f, 0x3a, 0xd1, 0x03, 0xd1, 0xf0, 0x0c, 0xc7, 0x0d, 0x14, 0x35,
  0xfe, 0x3e, 0xec, 0xf0, 0xfb, 0x07, 0xdf, 0x17, 0x08, 0xd5, 0xe7, 0x0f,
  0xf5, 0x45, 0xf5, 0x01, 0x0a, 0x28, 0xe6, 0x33, 0xd6, 0x07, 0x0b, 0xcf,
  0x18, 0xbe, 0x04, 0x20, 0xfc, 0xd4, 0xc8, 0x07, 0x01, 0x09, 0xe5, 0xf8,
  0xf2, 0xd5, 0x0e, 0xbd, 0x13, 0x02, 0xf1, 0x2d, 0xf6, 0x0e, 0xe6, 0xde,
  0x0e, 0x58, 0xd7, 0xdc, 0xf2, 0x46, 0x1f, 0x68, 0x27, 0xf9, 0xdb, 0xf6,
  0xfe, 0xdd, 0x32, 0xba, 0xaf, 0x03, 0xf5, 0x22, 0xc3, 0xc9, 0xa6, 0xdf,
  0x27, 0x17, 0xda, 0xe3, 0x9b, 0x20, 0x2d, 0x09, 0x0e, 0x0f, 0xc2, 0x41,
  0xe7, 0x40, 0xf6, 0xcf, 0xe0, 0x1d, 0x20, 0x0f, 0x13, 0xea, 0xb6, 0x24,
  0x07, 0x28, 0xd2, 0xc6, 0xc8, 0x5a, 0x2d, 0xdc, 0xea, 0x07, 0x01, 0x2a,
  0x43, 0x30, 0xd6, 0xca, 0xf5, 0xcf, 0x03, 0xdc, 0x00, 0xfa, 0xd3, 0xff,
  0xd1, 0x54, 0xc7, 0xe4, 0x31, 0x12, 0xc1, 0x48, 0xf5, 0xef, 0xc4, 0x23,
  0xcc, 0xef, 0x15, 0xdf, 0x1e, 0x1d, 0xf8, 0x13, 0x35, 0x0f, 0xf6, 0xf3,
  0xed, 0xf4, 0x03, 0x11, 0x05, 0x24, 0xa2, 0x21, 0xae, 0xf6, 0xe3, 0xfc,
  0xca, 0x0c, 0xe6, 0xf8, 0x0c, 0xf9, 0x15, 0xde, 0x26, 0xf9, 0xc3, 0x03,
  0x1b, 0xff, 0x03, 0x08, 0xef, 0x1e, 0x01, 0x0a, 0xe0, 0x1d, 0xf3, 0x20,
  0xf1, 0x04, 0xf5, 0x2c, 0x03, 0xce, 0xed, 0x00, 0xd2, 0xe0, 0xe4, 0xdc,
  0x2d, 0xf4, 0xed, 0xfe, 0x04, 0xf3, 0xf3, 0x05, 0x1e, 0x03, 0xf0, 0xee,
  0xdd, 0x22, 0xe7, 0x02, 0x0e, 0xe9, 0xd2, 0x16, 0x22, 0xf5, 0xea, 0x1f,
  0xdc, 0x16, 0x1b, 0xfb, 0xf0, 0xf1, 0x2f, 0xec, 0x2c, 0x1a, 0x03, 0xd6,
  0x08, 0x1b, 0xbe, 0x00, 0x34, 0xdf, 0x03, 0x16, 0x09, 0x1a, 0xff, 0x2f,
  0x20, 0xbc, 0x26, 0xcb, 0x01, 0xc4, 0x17, 0x32, 0xd9, 0xf8, 0xf5, 0xff,
  0x18, 0xe8, 0xed, 0x02, 0x26, 0xbe, 0x37, 0xe9, 0x14, 0xed, 0xea, 0x00,
  0xfe, 0x12, 0x35, 0xfb, 0x0c, 0xfd, 0x1a, 0xe5, 0xbf, 0x10, 0x16, 0xfb,
  0xb4, 0x4d, 0x0f, 0x0c, 0xe7, 0x0d, 0x18, 0x20, 0x3e, 0xf2, 0x24, 0x15,
  0x0d, 0x15, 0x75, 0xce, 0x0a, 0x0c, 0x23, 0xf6, 0x1c, 0x0b, 0x2d, 0x03,
  0xd3, 0x2e, 0x2a, 0x12, 0xde, 0x1d, 0xda, 0xe7, 0x01, 0xd6, 0x11, 0xfa,
  0x07, 0xec, 0xed, 0x21, 0x1d, 0x1f, 0x3a, 0x34, 0xe1, 0x1b, 0xef, 0x51,
  0x39, 0x40, 0x4d, 0x0e, 0xf7, 0x1c, 0xf5, 0x0e, 0x22, 0x48, 0x25, 0xf9,
  0xea, 0x33, 0xe9, 0x04, 0x13, 0x31, 0xc4, 0x2b, 0x04, 0xfe, 0xbd, 0x1e,
  0x24, 0x31, 0x26, 0x3d, 0xea, 0x4b, 0x05, 0x32, 0x39, 0xea, 0xea, 0x31,
  0x07, 0x34, 0x4e, 0x0b, 0x0a, 0x15, 0x04, 0x38, 0x62, 0x26, 0xe6, 0xe3,
  0x39, 0x02, 0x41, 0x06, 0xc4, 0x20, 0xfd, 0x02, 0x51, 0xec, 0xd9, 0xee,
  0x08, 0x08, 0x1c, 0xe4, 0xf7, 0xf4, 0xd0, 0x5f, 0x45, 0x10, 0x11, 0xd2,
  0xbb, 0x30, 0xd3, 0x54, 0xf1, 0x08, 0x22, 0x47, 0x05, 0x4a, 0x20, 0xc8,
  0xe0, 0xf8, 0x40, 0x49, 0x29, 0x06, 0xd2, 0x0b, 0x03, 0xdf, 0x27, 0xcd,
  0x3a, 0xbd, 0x04, 0xfa, 0x39, 0xc5, 0xec, 0xec, 0xf4, 0xeb, 0x52, 0x2f,
  0xda, 0xf7, 0xed, 0xd9, 0x1d, 0xe2, 0xf7, 0x3c, 0x4a, 0x3d, 0xe7, 0xfb,
  0x2b, 0x19, 0x5c, 0x11, 0x0e, 0x3f, 0xec, 0x2a, 0x22, 0x48, 0x35, 0x28,
  0xeb, 0x20, 0x31, 0x3f, 0xde, 0x12, 0xe7, 0x3e, 0x45, 0x53, 0x12, 0x04,
  0x06, 0x3d, 0x04, 0x16, 0xd9, 0xfc, 0x2f, 0x26, 0x16, 0x4d, 0x09, 0x0c,
  0xde, 0x38, 0x38, 0x2d, 0xf0, 0x3b, 0x05, 0x31, 0x27, 0x07, 0xd0, 0xe8,
  0x05, 0xf7, 0x00, 0x19, 0xf1, 0x27, 0xd2, 0x34, 0x24, 0x27, 0xf6, 0x23,
  0xbf, 0x19, 0x34, 0xf9, 0xe6, 0x1b, 0x2b, 0x08, 0xf3, 0x26, 0xed, 0xf9,
  0xdb, 0xc4, 0x4d, 0xf0, 0x50, 0x08, 0xa9, 0x13, 0xff, 0xf7, 0xdb, 0x27,
  0xac, 0xdc, 0x08, 0xcc, 0x20, 0xf3, 0xc5, 0x25, 0xcc, 0xc6, 0x09, 0x07,
  0xcb, 0x0c, 0xf9, 0x30, 0x1b, 0xd1, 0xcb, 0x1a, 0xe9, 0xc9, 0x38, 0x25,
  0xcb, 0x34, 0xf3, 0x1e, 0xf2, 0xea, 0xa9, 0xe8, 0x0d, 0xf9, 0x10, 0x06,
  0xbd, 0x11, 0xdd, 0x05, 0xfc, 0x14, 0xf1, 0x25, 0x41, 0x33, 0x19, 0xec,
  0x03, 0x27, 0x3c, 0xfb, 0x1a, 0x11, 0xba, 0x0a, 0xd0, 0x15, 0x06, 0x22,
  0x07, 0xee, 0xc9, 0x0b, 0x0b, 0x44, 0x10, 0xcc, 0x29, 0xf7, 0xe8, 0xbf,
  0xd5, 0x09, 0x47, 0x19, 0x24, 0xd1, 0xea, 0x11, 0xf0, 0x0d, 0xe5, 0xd1,
  0x27, 0x0e, 0x2c, 0xf7, 0x0d, 0xe8, 0xd4, 0x08, 0x19, 0xc2, 0xee, 0x04,
  0xdb, 0x08, 0x1c, 0x43, 0xce, 0x11, 0xd5, 0xdf, 0x34, 0xef, 0xf5, 0x2b,
  0x68, 0x5b, 0x18, 0xe4, 0xdf, 0x28, 0x4f, 0x44, 0xc7, 0x19, 0xdd, 0x12,
  0x4f, 0x32, 0x16, 0xf0, 0xd2, 0x2a, 0x03, 0x25, 0x27, 0xed, 0xe9, 0x10,
  0xf0, 0xf8, 0x1b, 0xe7, 0xc0, 0x37, 0xd7, 0xe6, 0xeb, 0x01, 0xe7, 0xec,
  0xe5, 0xbf, 0x04, 0xe9, 0xcb, 0x0d, 0xe0, 0xec, 0x09, 0xe2, 0x07, 0xf7,
  0xe6, 0xc3, 0xc9, 0xf6, 0xcd, 0x25, 0xbe, 0xf1, 0xcf, 0xe6, 0x13, 0x07,
  0xc5, 0xca, 0xae, 0x0e, 0x2c, 0x17, 0xf7, 0xb2, 0xb0, 0x0e, 0x3b, 0x33,
  0x37, 0x07, 0xc8, 0xd9, 0x03, 0x33, 0x38, 0x04, 0xe2, 0xf6, 0xd8, 0xed,
  0x01, 0xdd, 0x8b, 0xc9, 0x2f, 0x0d, 0xd2, 0x0c, 0xc9, 0xe6, 0x19, 0x13,
  0x14, 0x29, 0xbf, 0x23, 0x4c, 0xfd, 0xeb, 0x0f, 0xe9, 0x0e, 0xe7, 0x17,
  0xf2, 0x10, 0x05, 0xea, 0xde, 0x38, 0xdf, 0xf7, 0xc0, 0xcf, 0x2d, 0x1d,
  0x05, 0x30, 0xf2, 0x18, 0x0e, 0x15, 0xec, 0xc3, 0xee, 0xe0, 0x0b, 0xe5,
  0x20, 0xf7, 0xda, 0xca, 0x01, 0x1d, 0x23, 0x05, 0xe4, 0xed, 0x1c, 0xe0,
  0xe4, 0x12, 0xf9, 0xf2, 0xc0, 0x51, 0xf9, 0xe0, 0x07, 0x08, 0xf5, 0x10,
  0xf1, 0xf8, 0xfb, 0x1f, 0xfe, 0xde, 0xec, 0xec, 0xe6, 0x05, 0x1f, 0x34,
  0xe6, 0x2a, 0xba, 0x04, 0x24, 0x20, 0xe2, 0xfd, 0xcd, 0xe6, 0x33, 0xdf,
  0x01, 0x02, 0x0b, 0x08, 0x10, 0xf0, 0x19, 0xff, 0x13, 0xe6, 0x28, 0xdf,
  0xe9, 0xd4, 0xd9, 0xe6, 0x19, 0xe1, 0x02, 0xc6, 0xe1, 0x26, 0xe6, 0x1f,
  0xfb, 0xcf, 0xda, 0x09, 0xf0, 0x22, 0xda, 0x13, 0xc1, 0xe5, 0x15, 0xef,
  0x04, 0xe5, 0x23, 0x0d, 0x0c, 0x11, 0x2e, 0x2d, 0x28, 0xfc, 0xff, 0xf3,
  0x30, 0x2e, 0xf9, 0x0d, 0x10, 0xf8, 0x06, 0xd5, 0x0c, 0x08, 0xe8, 0x1f,
  0xf9, 0xe4, 0xf5, 0xdf, 0xb2, 0xfc, 0xd8, 0xfa, 0x27, 0xc0, 0xb5, 0x36,
  0x1b, 0x27, 0xef, 0x11, 0xcb, 0x31, 0x0d, 0x20, 0xf4, 0x1d, 0xa5, 0x0a,
  0x17, 0x2c, 0xfc, 0x39, 0xa4, 0xe9, 0xfe, 0x3a, 0xe2, 0xf0, 0xdb, 0x0f,
  0x4b, 0x15, 0x08, 0xdf, 0x0d, 0xcc, 0x31, 0x06, 0xcb, 0x09, 0xb5, 0x17,
  0x10, 0xfb, 0x19, 0xf0, 0xc9, 0xfe, 0x2a, 0xdb, 0x4a, 0xf4, 0xd8, 0x57,
  0x1a, 0x09, 0x15, 0x26, 0xe9, 0xd3, 0x3d, 0x38, 0x06, 0xe2, 0xf2, 0xea,
  0xec, 0x0a, 0xe0, 0xdc, 0x1e, 0x0e, 0xdb, 0x0b, 0xf6, 0xdd, 0xd8, 0x1b,
  0x02, 0x55, 0xfd, 0x08, 0xee, 0x1b, 0xec, 0x2e, 0x06, 0xd4, 0xec, 0x3b,
  0x25, 0x2d, 0xff, 0x1f, 0xd0, 0x04, 0xd7, 0xf2, 0xdd, 0x24, 0xe1, 0x36,
  0xd7, 0xed, 0x11, 0xe2, 0xdd, 0x08, 0x99, 0x06, 0xd4, 0xf1, 0x0f, 0x34,
  0x1a, 0xb8, 0xe1, 0x12, 0xe0, 0x45, 0xff, 0x24, 0xf8, 0x0a, 0x0d, 0x21,
  0xf9, 0x22, 0xa9, 0x1d, 0xd5, 0xe4, 0x37, 0x0c, 0xf8, 0xd8, 0x99, 0x25,
  0x14, 0xef, 0x17, 0x33, 0x9c, 0x47, 0xe4, 0x00, 0xb9, 0xed, 0xca, 0xef,
  0x34, 0xe1, 0xb1, 0x2c, 0xd5, 0x0d, 0x28, 0x25, 0xf1, 0x0e, 0xe9, 0x28,
  0x12, 0xe0, 0x18, 0xd5, 0xc8, 0x47, 0x14, 0xf5, 0x12, 0xd0, 0x2a, 0x1a,
  0xfd, 0x0f, 0xe9, 0xcd, 0xb3, 0x0a, 0xdd, 0x0c, 0x97, 0x11, 0x07, 0x26,
  0x38, 0x00, 0xcd, 0xb6, 0xef, 0x05, 0x2c, 0xe5, 0xcf, 0xd6, 0xfe, 0x1d,
  0xf4, 0xd8, 0xc1, 0xee, 0xd0, 0x3b, 0xcc, 0x35, 0xe3, 0xf5, 0xe6, 0x38,
  0x10, 0x33, 0xc0, 0xdf, 0xbe, 0xda, 0xf3, 0xfe, 0xee, 0x12, 0x0b, 0x26,
  0xe4, 0xec, 0x1c, 0xf9, 0x05, 0x10, 0xd3, 0x0b, 0xfa, 0x31, 0x45, 0x26,
  0xff, 0xe5, 0x1b, 0xe6, 0xfb, 0xe9, 0xf8, 0x20, 0x20, 0x1c, 0x04, 0xf5,
  0xf8, 0xbb, 0x04, 0xf7, 0x04, 0x17, 0x34, 0x14, 0x22, 0xc3, 0x2a, 0x05,
  0x25, 0xbf, 0x06, 0x0a, 0xe8, 0xfe, 0xeb, 0xeb, 0x07, 0xe4, 0x0f, 0x19,
  0x04, 0x08, 0xf6, 0x01, 0x14, 0xfa, 0xf1, 0xca, 0x19, 0xc1, 0xf7, 0xda,
  0x04, 0x0d, 0x02, 0xc4, 0xf0, 0x0d, 0x25, 0x08, 0x32, 0x35, 0x05, 0x0f,
  0xfb, 0x1f, 0xf4, 0xfe, 0xd6, 0xf1, 0xde, 0xd9, 0x2c, 0x12, 0xdb, 0x1e,
  0xfe, 0xcc, 0xff, 0x02, 0x0b, 0x04, 0xf1, 0x45, 0xfb, 0xee, 0xe8, 0x22,
  0xeb, 0xd5, 0xd0, 0x23, 0xda, 0x45, 0x19, 0xf4, 0xca, 0xfb, 0xca, 0xe2,
  0xfb, 0x2a, 0xf5, 0xcc, 0x06, 0x02, 0x1a, 0x1b, 0xe5, 0xfe, 0xf0, 0x12,
  0x01, 0xe5, 0xe4, 0x0e, 0x25, 0xe6, 0xd3, 0x41, 0xe8, 0x01, 0x01, 0xed,
  0x3c, 0xfd, 0x01, 0xeb, 0xec, 0xdc, 0xc9, 0x14, 0xe1, 0xfb, 0xe9, 0xf4,
  0xdc, 0xca, 0x22, 0x03, 0x30, 0x25, 0x0f, 0xe0, 0x07, 0xd8, 0xd6, 0xf6,
  0xf8, 0xfc, 0x1c, 0x35, 0xde, 0x2e, 0xdf, 0x1a, 0x27, 0xf1, 0xf7, 0x15,
  0x2b, 0xef, 0xf1, 0xd1, 0x35, 0xf3, 0xff, 0xf0, 0x1e, 0x02, 0xf3, 0xd1,
  0x3e, 0x0e, 0xe5, 0x21, 0xd9, 0xd3, 0x05, 0xb9, 0xef, 0x27, 0x11, 0x0a,
  0xef, 0x09, 0xd9, 0x1e, 0x21, 0x03, 0xc0, 0x00, 0x03, 0x20, 0x03, 0x20,
  0x1f, 0xc7, 0xf5, 0x26, 0x0d, 0x13, 0x30, 0x39, 0xfc, 0xfc, 0xe9, 0x16,
  0x19, 0x12, 0xf8, 0x18, 0x1d, 0x08, 0x16, 0xee, 0x10, 0x14, 0x25, 0x3e,
  0xe8, 0x0a, 0xef, 0xe5, 0x23, 0xd0, 0x0a, 0x26, 0xd0, 0xca, 0xe9, 0xc2,
  0x47, 0x2d, 0x18, 0x0d, 0x20, 0x20, 0xeb, 0xe3, 0xf0, 0xdc, 0x21, 0xf9,
  0x20, 0xd9, 0xd6, 0xdb, 0xf0, 0x03, 0xfc, 0xdb, 0xeb, 0x0b, 0xe6, 0xf6,
  0x05, 0x2c, 0xcd, 0xc2, 0xf1, 0x36, 0x1f, 0x54, 0xf0, 0x0e, 0xbd, 0xd1,
  0xd2, 0xeb, 0xb6, 0x03, 0xe0, 0x28, 0x04, 0x4a, 0xd7, 0xf7, 0xaf, 0xf6,
  0x0d, 0x00, 0xd0, 0xcd, 0xd8, 0x02, 0x02, 0xe3, 0xa9, 0x39, 0xf6, 0x26,
  0xf8, 0xe2, 0xd4, 0xbb, 0x01, 0xf0, 0xf7, 0x1a, 0x03, 0xda, 0xb1, 0x10,
  0x3a, 0x14, 0x15, 0xde, 0xef, 0xd7, 0x00, 0x21, 0xd1, 0x1a, 0xe2, 0x21,
  0x03, 0x23, 0xcb, 0xec, 0xda, 0x17, 0x09, 0xc8, 0xd6, 0xb5, 0xd7, 0x21,
  0xbc, 0x00, 0xed, 0xf1, 0x07, 0x03, 0xf5, 0x51, 0xb9, 0xce, 0xf5, 0x2d,
  0xeb, 0xfd, 0xd6, 0xcb, 0x2c, 0xda, 0xf0, 0x40, 0xd4, 0xf7, 0x28, 0xfd,
  0xb0, 0x34, 0xec, 0xf7, 0x07, 0xfa, 0xbc, 0xfc, 0x09, 0x09, 0xf4, 0xff,
  0xed, 0xe9, 0xd0, 0xed, 0x05, 0x0c, 0x44, 0xe1, 0x1f, 0x02, 0xd3, 0xe8,
  0xe4, 0x01, 0x34, 0x27, 0xd1, 0xd1, 0x24, 0xed, 0xfe, 0xe4, 0x0b, 0xc9,
  0x0f, 0xdc, 0xf5, 0xfd, 0xe3, 0xe2, 0xfa, 0xe2, 0xdb, 0xed, 0xeb, 0x22,
  0x0c, 0xef, 0x0a, 0x1c, 0xed, 0xcb, 0xff, 0x2b, 0xdd, 0xeb, 0x29, 0xf1,
  0x03, 0xeb, 0x03, 0xc9, 0xf0, 0x3f, 0x14, 0x0b, 0x1f, 0x2a, 0x06, 0x1f,
  0x00, 0x19, 0x28, 0xce, 0x44, 0x38, 0xd6, 0x08, 0xd6, 0x41, 0xdc, 0xe7,
  0xfe, 0xef, 0x1e, 0xf3, 0xcd, 0xe4, 0x39, 0xd5, 0x3c, 0x02, 0x1b, 0xe9,
  0x03, 0xe6, 0x24, 0xc4, 0xe0, 0x14, 0x02, 0xde, 0xf6, 0x15, 0x19, 0xfb,
  0xe9, 0x03, 0x10, 0x00, 0x01, 0xf6, 0x1a, 0x2b, 0x47, 0xdd, 0xbf, 0xd0,
  0x0c, 0x10, 0x08, 0x1d, 0xf4, 0x09, 0xec, 0xe9, 0xdb, 0x45, 0xfd, 0xe5,
  0x0e, 0xe3, 0xef, 0x11, 0xc1, 0x01, 0xcf, 0xec, 0xf8, 0xd8, 0x16, 0x3d,
  0x05, 0x02, 0x0d, 0x28, 0x02, 0xf5, 0x31, 0xd5, 0xcf, 0x20, 0xe7, 0x0b,
  0x2e, 0xfc, 0xea, 0xf1, 0x03, 0xe3, 0xf5, 0x3f, 0x17, 0xf6, 0xe1, 0x03,
  0x19, 0xcb, 0x25, 0xf7, 0x10, 0xe4, 0x04, 0xf5, 0x2d, 0x0c, 0xd0, 0x15,
  0xdd, 0xff, 0x2c, 0xdf, 0xf9, 0x1c, 0xf5, 0x13, 0xea, 0x24, 0xd8, 0xff,
  0x0b, 0xec, 0x2d, 0x0e, 0xe7, 0x2d, 0x08, 0xd9, 0xff, 0xeb, 0xf4, 0xe3,
  0xf0, 0x33, 0xec, 0xf3, 0x27, 0xed, 0xca, 0x14, 0xda, 0x1a, 0x0d, 0xf1,
  0xff, 0xf6, 0xe9, 0x24, 0xe1, 0xd7, 0x12, 0xdb, 0x41, 0x2b, 0xe4, 0x0b,
  0x1e, 0x09, 0xde, 0x07, 0xc8, 0x0f, 0x29, 0x31, 0x1a, 0xc2, 0xeb, 0xf7,
  0x03, 0x38, 0x3c, 0x3b, 0xc7, 0xba, 0x0a, 0x14, 0x2d, 0xfb, 0xd2, 0x42,
  0xba, 0x0b, 0xce, 0x3c, 0x2d, 0xd0, 0xd3, 0xf5, 0xf1, 0x42, 0x28, 0x09,
  0x94, 0xc3, 0xf1, 0xf6, 0x4e, 0xe6, 0xed, 0xdd, 0x1e, 0xce, 0x7e, 0xdb,
  0xc9, 0x39, 0xe5, 0xf6, 0x7e, 0xcd, 0xea, 0xb5, 0xeb, 0x05, 0x4e, 0x10,
  0xdf, 0x03, 0x0f, 0xcb, 0x1d, 0xba, 0xc0, 0x15, 0xed, 0x30, 0x35, 0xc5,
  0xb5, 0x41, 0x00, 0x36, 0x2a, 0xfa, 0xd0, 0x1a, 0x33, 0x44, 0xf9, 0xfe,
  0xc0, 0x33, 0x25, 0x2c, 0x07, 0xf7, 0xa7, 0x12, 0x01, 0x13, 0x18, 0xe8,
  0xb8, 0xea, 0x29, 0x02, 0xf2, 0xc2, 0xcc, 0x14, 0x59, 0x25, 0x02, 0xbe,
  0xd8, 0xca, 0x3d, 0xc8, 0x16, 0xe5, 0x24, 0xcf, 0x5a, 0x26, 0xf9, 0xdf,
  0xc7, 0xf0, 0xe5, 0x24, 0x08, 0x16, 0xfc, 0xe3, 0x32, 0x32, 0x13, 0xc5,
  0x2c, 0x30, 0xd7, 0xf6, 0xf0, 0xb5, 0x2f, 0x36, 0x1c, 0x0b, 0xd6, 0xca,
  0x0b, 0x18, 0xfd, 0x27, 0x01, 0x42, 0xed, 0xec, 0x1e, 0xcd, 0xf0, 0x11,
  0x26, 0x08, 0xf7, 0xd7, 0xf9, 0x0f, 0x2b, 0x25, 0x1d, 0xba, 0x11, 0xd5,
  0x34, 0x19, 0xed, 0x2c, 0x0a, 0xfe, 0x1a, 0x04, 0xce, 0x2c, 0xd9, 0x00,
  0x0f, 0x04, 0x1c, 0xe8, 0x23, 0xfc, 0x00, 0xef, 0x20, 0xe4, 0xfa, 0x1b,
  0xff, 0x20, 0x06, 0x38, 0xe9, 0x13, 0x19, 0xe6, 0xf9, 0xfe, 0x24, 0xf8,
  0x11, 0xc8, 0xf0, 0x09, 0xf4, 0x0c, 0x0e, 0x05, 0x14, 0xfd, 0xbd, 0x15,
  0xbf, 0x3f, 0x2f, 0x2d, 0xdc, 0xfd, 0x12, 0xf9, 0x00, 0xc5, 0xd4, 0x28,
  0x3a, 0xd0, 0xce, 0x0d, 0xc0, 0xf7, 0x0e, 0xf7, 0xdf, 0xe6, 0xdb, 0xec,
  0x0a, 0xd3, 0x01, 0xc9, 0xe7, 0xe4, 0x16, 0x0d, 0xdb, 0xfc, 0x29, 0xff,
  0x17, 0xef, 0x1a, 0xe7, 0x0e, 0x0c, 0x10, 0xcf, 0x33, 0x01, 0xf5, 0x13,
  0xf3, 0x0d, 0x42, 0x16, 0x2b, 0xf7, 0xe5, 0x33, 0x04, 0x2e, 0xe1, 0x1c,
  0xe3, 0xeb, 0x50, 0xc9, 0x00, 0xd5, 0xe1, 0xfd, 0x19, 0x1c, 0x35, 0x34,
  0x19, 0xf8, 0x19, 0xe7, 0x2c, 0x25, 0x02, 0x28, 0xd1, 0xe4, 0x3a, 0x06,
  0x07, 0xcd, 0xe0, 0xd2, 0xf1, 0x03, 0xcf, 0x39, 0x43, 0x00, 0x29, 0xc7,
  0xd1, 0x0f, 0x17, 0xdf, 0xca, 0xd8, 0xfd, 0x06, 0x21, 0x40, 0x0d, 0xda,
  0xd5, 0x0a, 0xe8, 0xff, 0xd9, 0xdd, 0xea, 0xd8, 0x11, 0x1e, 0x00, 0xd1,
  0xbe, 0x09, 0x0f, 0xe1, 0xfb, 0x24, 0xee, 0x1a, 0x2e, 0xdc, 0xfb, 0xd8,
  0xd5, 0x14, 0xee, 0xca, 0x09, 0xc0, 0xcd, 0xec, 0x12, 0xf5, 0x12, 0xd5,
  0x1b, 0xfd, 0x27, 0x20, 0xfe, 0xf1, 0xfe, 0x18, 0xe4, 0x02, 0x0d, 0x38,
  0xce, 0xda, 0xeb, 0x2a, 0x05, 0xf5, 0x23, 0x17, 0xe4, 0x05, 0xf2, 0xd2,
  0xbb, 0x26, 0xc9, 0x2e, 0x26, 0xe1, 0xec, 0x2e, 0xf6, 0x5f, 0xf9, 0xe0,
  0xd6, 0xec, 0x49, 0xe3, 0x1d, 0xe0, 0x98, 0xe2, 0x40, 0xf2, 0x4b, 0xad,
  0x28, 0x01, 0x06, 0x21, 0x74, 0x09, 0xf8, 0xf0, 0x27, 0x4d, 0x08, 0xdb,
  0xc7, 0xff, 0x35, 0xfe, 0x4b, 0xea, 0xba, 0xe8, 0xec, 0x20, 0xe4, 0xc2,
  0xae, 0xed, 0x55, 0xe7, 0x04, 0xe8, 0x00, 0x1f, 0x36, 0x46, 0xd8, 0xe4,
  0x13, 0x25, 0x1d, 0xf6, 0xe9, 0x07, 0xcb, 0x37, 0xdf, 0xff, 0x40, 0x01,
  0xf5, 0x4e, 0xff, 0xf9, 0x28, 0x07, 0xc4, 0xf9, 0x16, 0x33, 0xe2, 0x15,
  0x01, 0x23, 0x4a, 0xe4, 0xec, 0xd6, 0x32, 0xcd, 0x20, 0x2e, 0xeb, 0xad,
  0x04, 0xed, 0x44, 0x1f, 0xcc, 0xc7, 0xd8, 0xec, 0x56, 0x09, 0x26, 0xd3,
  0x02, 0x34, 0x2f, 0x38, 0x01, 0x09, 0xf1, 0x4e, 0xdd, 0x0a, 0xfe, 0xf2,
  0x08, 0xe7, 0x29, 0xf8, 0x10, 0xee, 0xe0, 0xe2, 0xd9, 0x2d, 0xf9, 0x08,
  0xe8, 0xe4, 0x23, 0x2a, 0xdc, 0xde, 0x0a, 0x03, 0x0f, 0x0d, 0x24, 0xea,
  0xe6, 0xf7, 0x16, 0xf6, 0x09, 0xf9, 0xe2, 0xf2, 0xed, 0xfc, 0xd1, 0x0d,
  0xfe, 0x22, 0x18, 0x10, 0x0e, 0xeb, 0x14, 0x0f, 0x31, 0x21, 0xe1, 0x02,
  0xba, 0xf0, 0xe6, 0x1c, 0x0c, 0xda, 0xf2, 0x14, 0xd2, 0x05, 0x22, 0x0b,
  0x0a, 0x14, 0xef, 0x16, 0x45, 0x0e, 0x36, 0x15, 0xcd, 0x22, 0x27, 0x30,
  0x1a, 0xcb, 0x23, 0x0e, 0xe7, 0xe5, 0x15, 0x01, 0x3f, 0xe8, 0x48, 0x11,
  0xdd, 0xca, 0x0f, 0xfd, 0x23, 0x22, 0x06, 0xc0, 0xfc, 0x28, 0xff, 0x0d,
  0xd6, 0x10, 0x50, 0xcf, 0xeb, 0xd8, 0x14, 0xf5, 0xed, 0xdc, 0x14, 0xf8,
  0x31, 0xff, 0xf3, 0x14, 0x0e, 0xfb, 0x44, 0xe2, 0x1f, 0xf9, 0x12, 0x1d,
  0xbc, 0xfa, 0xff, 0xff, 0xc0, 0xfa, 0xff, 0xff, 0xf6, 0xfa, 0xff, 0xff,
  0x04, 0x00, 0x00, 0x00, 0xee, 0x02, 0x00, 0x00, 0xda, 0x58, 0xf6, 0xd3,
  0x15, 0xc1, 0xe0, 0xd8, 0xe9, 0xf4, 0x25, 0x07, 0x2d, 0x47, 0xde, 0x33,
  0xfc, 0xf8, 0xb0, 0x06, 0x7c, 0x03, 0x4f, 0xdb, 0xc3, 0xe8, 0xdc, 0xfd,
  0xfa, 0x45, 0x22, 0x33, 0xd1, 0x1a, 0x57, 0x25, 0x21, 0xd7, 0x19, 0x25,
  0x06, 0xf9, 0x08, 0xf2, 0x2b, 0xfc, 0xf8, 0x37, 0x45, 0xf3, 0x0a, 0xe0,
  0xdd, 0xf8, 0xee, 0xe4, 0xf8, 0xff, 0x05, 0x08, 0xdd, 0x1b, 0x23, 0xff,
  0xf8, 0xf6, 0xfd, 0xe9, 0x07, 0x23, 0xdd, 0x13, 0x2a, 0xf4, 0x08, 0x14,
  0x0b, 0x1a, 0xf9, 0xf1, 0xe5, 0xee, 0xe5, 0xf8, 0x21, 0xfe, 0xdb, 0xfa,
  0x2e, 0xf1, 0xe5, 0xc8, 0xf7, 0x16, 0xf8, 0xe7, 0x0d, 0x11, 0xec, 0x1e,
  0x30, 0x42, 0x2d, 0xda, 0x44, 0xcd, 0xe3, 0x10, 0xe9, 0xf8, 0x28, 0x07,
  0x47, 0x28, 0x1d, 0x35, 0x04, 0x04, 0xbf, 0xf0, 0x36, 0x26, 0x60, 0xb3,
  0xd6, 0x24, 0xcb, 0xfc, 0x1e, 0x0e, 0x22, 0xff, 0x1c, 0x28, 0x15, 0x31,
  0x0a, 0xfe, 0x22, 0xff, 0xf5, 0x06, 0xf7, 0xdd, 0x23, 0xfb, 0x10, 0x1c,
  0xdc, 0xe9, 0xca, 0x2d, 0x41, 0x4d, 0xba, 0xfe, 0x3d, 0xca, 0x0b, 0x19,
  0x2a, 0x0e, 0xbf, 0xf9, 0x03, 0xe4, 0x13, 0xfe, 0x45, 0x38, 0xb3, 0xa5,
  0xf9, 0x2b, 0x51, 0x13, 0x1a, 0xd9, 0x14, 0xb5, 0x29, 0xdc, 0x15, 0xf5,
  0x38, 0x2c, 0xbd, 0x1a, 0xa0, 0xb2, 0xd9, 0x1c, 0xd8, 0x18, 0xfb, 0x74,
  0xf8, 0x00, 0x4b, 0x3c, 0xef, 0xf1, 0xf1, 0xee, 0x45, 0xf2, 0x04, 0xef,
  0xf7, 0x03, 0x1e, 0xf0, 0x49, 0x10, 0x14, 0x32, 0xe7, 0x00, 0xd2, 0xfc,
  0x5e, 0x18, 0x02, 0x14, 0xd0, 0xe6, 0xeb, 0xe7, 0xfe, 0xf0, 0x13, 0x2d,
  0x17, 0xe3, 0x1c, 0x11, 0xf3, 0xfd, 0x3a, 0x2e, 0xd5, 0xd2, 0x43, 0x0a,
  0x0a, 0xe5, 0xd2, 0xd5, 0x11, 0xd5, 0x0f, 0xc6, 0xc7, 0xda, 0x71, 0x13,
  0x1b, 0xfd, 0x1d, 0xf3, 0xb3, 0xf5, 0x1d, 0xef, 0x1e, 0x13, 0xfa, 0xf8,
  0xf2, 0xa8, 0x00, 0x05, 0x28, 0x20, 0xd2, 0x28, 0xbc, 0x0b, 0x39, 0x28,
  0x1b, 0x4a, 0x14, 0xd5, 0xb0, 0xfd, 0x5e, 0x04, 0x2e, 0x42, 0xdb, 0xec,
  0x5d, 0xfc, 0x16, 0xd5, 0x0d, 0xc2, 0xa4, 0xda, 0xfe, 0x23, 0xfc, 0x47,
  0xd4, 0xe1, 0x28, 0xe5, 0x25, 0x18, 0x0f, 0x06, 0xed, 0xfe, 0x10, 0x12,
  0xf6, 0x02, 0x11, 0x19, 0xa6, 0xfc, 0x14, 0x07, 0x33, 0x2a, 0x28, 0xed,
  0x0a, 0x08, 0xde, 0x03, 0x0e, 0xe0, 0x06, 0x26, 0x05, 0x03, 0xfa, 0xef,
  0x17, 0xd3, 0xfd, 0xee, 0x15, 0xfe, 0x03, 0x27, 0x13, 0x11, 0x18, 0x13,
  0xf3, 0x9e, 0xe9, 0xb9, 0xbc, 0xd2, 0xfd, 0x1c, 0x15, 0x12, 0x4a, 0x34,
  0xca, 0x0b, 0x48, 0x0c, 0xa6, 0x26, 0x2e, 0x00, 0x0d, 0x9b, 0xe0, 0xfe,
  0xb1, 0x0a, 0xe5, 0x16, 0x17, 0x30, 0xf1, 0x7f, 0x55, 0x09, 0xc1, 0xd9,
  0x3a, 0xe4, 0x30, 0xce, 0x11, 0xec, 0xd6, 0x1f, 0x06, 0x02, 0x35, 0x0f,
  0x17, 0xe6, 0x23, 0x56, 0x24, 0x23, 0x17, 0x19, 0xeb, 0x09, 0xf4, 0x16,
  0xee, 0xc6, 0x0b, 0xdd, 0x09, 0x0c, 0x1d, 0xdd, 0xe6, 0xdc, 0x02, 0x15,
  0x25, 0x18, 0x06, 0x3c, 0x14, 0xcb, 0x32, 0xe7, 0x09, 0xfb, 0xc7, 0x2b,
  0x06, 0x28, 0x10, 0x33, 0xcc, 0xe3, 0xdf, 0xee, 0xdf, 0xdd, 0xfa, 0x23,
  0xe8, 0x20, 0x27, 0xe3, 0x08, 0x06, 0x0d, 0xbe, 0xbf, 0x12, 0x13, 0x17,
  0x0d, 0x24, 0x22, 0x00, 0xe4, 0xef, 0x00, 0x14, 0x1e, 0xee, 0x45, 0x32,
  0x1c, 0xbc, 0x3a, 0xf0, 0x07, 0x09, 0x02, 0x3c, 0xec, 0x1b, 0x22, 0xf8,
  0xeb, 0x21, 0x11, 0xf4, 0x20, 0xf5, 0xf4, 0x29, 0xea, 0xca, 0x18, 0xe0,
  0xfc, 0xef, 0xfa, 0x14, 0x29, 0xc0, 0xc4, 0xec, 0x17, 0x4a, 0x18, 0x1c,
  0xdd, 0xf0, 0xce, 0x0b, 0xe0, 0xf4, 0x65, 0xe7, 0x10, 0x02, 0xe9, 0xd5,
  0xc7, 0x27, 0xad, 0x25, 0xfd, 0x11, 0x02, 0x29, 0x28, 0x0c, 0x3b, 0x58,
  0xdd, 0xcd, 0xd1, 0x18, 0x56, 0x27, 0x23, 0x1f, 0x1b, 0x0f, 0x2a, 0x13,
  0x0a, 0xcb, 0xea, 0x11, 0xaa, 0xe9, 0xc8, 0x2e, 0x37, 0xf7, 0xd6, 0x29,
  0x22, 0x14, 0x38, 0x2b, 0x0f, 0x15, 0xd3, 0xda, 0xd5, 0xfb, 0x05, 0x30,
  0x2a, 0x03, 0xb8, 0xc0, 0xfb, 0x29, 0x4b, 0x28, 0x35, 0x27, 0xef, 0xe7,
  0x22, 0xf7, 0x16, 0x05, 0xce, 0x24, 0xdf, 0xd2, 0xdd, 0xd6, 0x1d, 0x22,
  0x1f, 0xfd, 0xf6, 0x41, 0x0a, 0xf7, 0xfe, 0x01, 0xef, 0x22, 0x1a, 0x53,
  0x8d, 0x03, 0x07, 0xe7, 0xe8, 0x52, 0xf7, 0x0d, 0xa4, 0x06, 0xfe, 0xea,
  0xf4, 0x15, 0x47, 0xd9, 0xa1, 0x0d, 0x03, 0x0b, 0x25, 0x0f, 0x21, 0x0c,
  0xdc, 0xf0, 0x17, 0xc2, 0xcd, 0x1c, 0xf7, 0x38, 0x06, 0xf7, 0xe9, 0xd4,
  0x21, 0xda, 0xf8, 0x16, 0x09, 0x65, 0xe1, 0x48, 0x14, 0xff, 0x13, 0xd8,
  0xd9, 0xe6, 0x17, 0x09, 0xf7, 0x3a, 0xf1, 0xee, 0xf2, 0xdd, 0x11, 0xe5,
  0x0a, 0x1c, 0x02, 0x2b, 0xd2, 0xee, 0xec, 0x29, 0x15, 0xfe, 0xc6, 0x35,
  0xdc, 0xe7, 0x22, 0xfd, 0xf6, 0x07, 0x0b, 0x33, 0x01, 0x22, 0x47, 0xea,
  0x09, 0x58, 0x0f, 0x0e, 0x16, 0xeb, 0x11, 0xe3, 0x24, 0xf3, 0xf8, 0x1c,
  0xf9, 0xcd, 0xec, 0x11, 0xe8, 0x49, 0x14, 0x3e, 0x05, 0x07, 0xd9, 0xf5,
  0xcf, 0xfc, 0x38, 0xd4, 0x2f, 0x24, 0x0e, 0x01, 0xcf, 0x32, 0xd9, 0x07,
  0xd2, 0x33, 0xdd, 0x15, 0xea, 0xf5, 0x25, 0xfe, 0x09, 0xce, 0xc4, 0x14,
  0x38, 0x11, 0x04, 0xff, 0xfe, 0xe1, 0x09, 0xfd, 0xda, 0x06, 0x22, 0x0c,
  0x0f, 0x0d, 0x00, 0x00, 0xc0, 0xfd, 0xff, 0xff, 0xf6, 0xfd, 0xff, 0xff,
  0x04, 0x00, 0x00, 0x00, 0xc8, 0x00, 0x00, 0x00, 0xc2, 0x20, 0x00, 0x00,
  0xfe, 0xee, 0xff, 0xff, 0x1a, 0xe4, 0xff, 0xff, 0x80, 0xf7, 0xff, 0xff,
  0x46, 0x26, 0x00, 0x00, 0x45, 0x1c, 0x00, 0x00, 0xe2, 0xfa, 0xff, 0xff,
  0x7d, 0x15, 0x00, 0x00, 0x00, 0x00, 0x00, 0x00, 0xdf, 0xf3, 0xff, 0xff,
  0xc4, 0xfc, 0xff, 0xff, 0x4f, 0xfb, 0xff, 0xff, 0x48, 0x1e, 0x00, 0x00,
  0x1d, 0x0e, 0x00, 0x00, 0x99, 0x13, 0x00, 0x00, 0xa6, 0x22, 0x00, 0x00,
  0x07, 0x06, 0x00, 0x00, 0x0c, 0xfc, 0xff, 0xff, 0x69, 0xee, 0xff, 0xff,
  0x18, 0xfe, 0xff, 0xff, 0xe6, 0x14, 0x00, 0x00, 0x4d, 0x17, 0x00, 0x00,
  0x10, 0x1a, 0x00, 0x00, 0x7b, 0xf9, 0xff, 0xff, 0x79, 0xe2, 0xff, 0xff,
  0xd0, 0x1d, 0x00, 0x00, 0xd7, 0xe6, 0xff, 0xff, 0x10, 0x10, 0x00, 0x00,
  0xc5, 0x0d, 0x00, 0x00, 0xb8, 0x24, 0x00, 0x00, 0x2e, 0x29, 0x00, 0x00,
  0x29, 0x30, 0x00, 0x00, 0x0f, 0xfd, 0xff, 0xff, 0x76, 0x08, 0x00, 0x00,
  0xee, 0xf1, 0xff, 0xff, 0x97, 0x06, 0x00, 0x00, 0x1e, 0x12, 0x00, 0x00,
  0xac, 0x0e, 0x00, 0x00, 0xc1, 0x34, 0x00, 0x00, 0x2d, 0x21, 0x00, 0x00,
  0x9b, 0xfb, 0xff, 0xff, 0x89, 0xfc, 0xff, 0xff, 0xae, 0x22, 0x00, 0x00,
  0x00, 0x00, 0x00, 0x00, 0xfc, 0xf2, 0xff, 0xff, 0xed, 0xfa, 0xff, 0xff,
  0x00, 0x00, 0x00, 0x00, 0x0e, 0xf0, 0xff, 0xff, 0xcf, 0xfb, 0xff, 0xff,
  0x36, 0x02, 0x00, 0x00, 0xca, 0xfe, 0xff, 0xff, 0x04, 0x00, 0x00, 0x00,
  0x3c, 0x00, 0x00, 0x00, 0x96, 0x09, 0x00, 0x00, 0x00, 0x00, 0x00, 0x00,
  0x66, 0x1d, 0x00, 0x00, 0x0e, 0xfa, 0xff, 0xff, 0xb5, 0x27, 0x00, 0x00,
  0x25, 0x1a, 0x00, 0x00, 0xd8, 0xfa, 0xff, 0xff, 0x86, 0x10, 0x00, 0x00,
  0xc2, 0x09, 0x00, 0x00, 0xff, 0xf9, 0xff, 0xff, 0x1e, 0x17, 0x00, 0x00,
  0xb5, 0xe2, 0xff, 0xff, 0x22, 0xeb, 0xff, 0xff, 0x0c, 0x18, 0x00, 0x00,
  0x12, 0x17, 0x00, 0x00, 0x12, 0xff, 0xff, 0xff, 0x04, 0x00, 0x00, 0x00,
  0x2d, 0x00, 0x00, 0x00, 0x93, 0x26, 0xb4, 0x73, 0xdf, 0x8c, 0x48, 0xe2,
  0x13, 0xd6, 0xea, 0x47, 0x3f, 0xbf, 0x0d, 0x34, 0x04, 0x3d, 0xe6, 0x3a,
  0xce, 0xf0, 0x7f, 0xbe, 0xf7, 0xa4, 0xe4, 0xaf, 0xfc, 0xbc, 0xc2, 0x35,
  0xfb, 0xa1, 0x3a, 0x61, 0x07, 0x9f, 0x15, 0xcf, 0x5a, 0xe7, 0x9f, 0x26,
  0x34, 0x00, 0x00, 0x00, 0x4e, 0xff, 0xff, 0xff, 0x04, 0x00, 0x00, 0x00,
  0x0c, 0x00, 0x00, 0x00, 0xe2, 0xf6, 0xff, 0xff, 0xbc, 0xfc, 0xff, 0xff,
  0xfd, 0x02, 0x00, 0x00, 0x34, 0xff, 0xff, 0xff, 0x0f, 0x00, 0x00, 0x00,
  0x54, 0x4f, 0x43, 0x4f, 0x20, 0x43, 0x6f, 0x6e, 0x76, 0x65, 0x72, 0x74,
  0x65, 0x64, 0x2e, 0x00, 0x01, 0x00, 0x00, 0x00, 0x04, 0x00, 0x00, 0x00,
  0x00, 0xf9, 0xff, 0xff, 0x94, 0x01, 0x00, 0x00, 0x88, 0x01, 0x00, 0x00,
  0x7c, 0x01, 0x00, 0x00, 0x04, 0x00, 0x00, 0x00, 0x06, 0x00, 0x00, 0x00,
  0x50, 0x01, 0x00, 0x00, 0x04, 0x01, 0x00, 0x00, 0xbc, 0x00, 0x00, 0x00,
  0x74, 0x00, 0x00, 0x00, 0x38, 0x00, 0x00, 0x00, 0x04, 0x00, 0x00, 0x00,
  0xd2, 0xfe, 0xff, 0xff, 0x03, 0x00, 0x00, 0x00, 0x10, 0x00, 0x00, 0x00,
  0x04, 0x00, 0x00, 0x00, 0x01, 0x00, 0x00, 0x00, 0x0c, 0x00, 0x00, 0x00,
  0x01, 0x00, 0x00, 0x00, 0x00, 0x00, 0x00, 0x00, 0x00, 0x00, 0x0e, 0x00,
  0x1a, 0x00, 0x08, 0x00, 0x0c, 0x00, 0x10, 0x00, 0x07, 0x00, 0x14, 0x00,
  0x0e, 0x00, 0x00, 0x00, 0x00, 0x00, 0x00, 0x09, 0x01, 0x00, 0x00, 0x00,
  0x24, 0x00, 0x00, 0x00, 0x18, 0x00, 0x00, 0x00, 0x0c, 0x00, 0x00, 0x00,
  0x00, 0x00, 0x06, 0x00, 0x08, 0x00, 0x04, 0x00, 0x06, 0x00, 0x00, 0x00,
  0x00, 0x00, 0x80, 0x3f, 0x01, 0x00, 0x00, 0x00, 0x00, 0x00, 0x00, 0x00,
  0x01, 0x00, 0x00, 0x00, 0x08, 0x00, 0x00, 0x00, 0xca, 0xff, 0xff, 0xff,
  0x00, 0x00, 0x00, 0x08, 0x1c, 0x00, 0x00, 0x00, 0x10, 0x00, 0x00, 0x00,
  0x08, 0x00, 0x00, 0x00, 0x04, 0x00, 0x04, 0x00, 0x04, 0x00, 0x00, 0x00,
  0x01, 0x00, 0x00, 0x00, 0x08, 0x00, 0x00, 0x00, 0x03, 0x00, 0x00, 0x00,
  0x07, 0x00, 0x00, 0x00, 0x09, 0x00, 0x00, 0x00, 0x0a, 0x00, 0x00, 0x00,
  0x00, 0x00, 0x0e, 0x00, 0x14, 0x00, 0x00, 0x00, 0x08, 0x00, 0x0c, 0x00,
  0x07, 0x00, 0x10, 0x00, 0x0e, 0x00, 0x00, 0x00, 0x00, 0x00, 0x00, 0x08,
  0x1c, 0x00, 0x00, 0x00, 0x10, 0x00, 0x00, 0x00, 0x04, 0x00, 0x00, 0x00,
  0xba, 0xff, 0xff, 0xff, 0x00, 0x00, 0x00, 0x01, 0x01, 0x00, 0x00, 0x00,
  0x07, 0x00, 0x00, 0x00, 0x03, 0x00, 0x00, 0x00, 0x04, 0x00, 0x00, 0x00,
  0x05, 0x00, 0x00, 0x00, 0x06, 0x00, 0x00, 0x00, 0x00, 0x00, 0x0e, 0x00,
  0x16, 0x00, 0x00, 0x00, 0x08, 0x00, 0x0c, 0x00, 0x07, 0x00, 0x10, 0x00,
  0x0e, 0x00, 0x00, 0x00, 0x00, 0x00, 0x00, 0x08, 0x24, 0x00, 0x00, 0x00,
  0x18, 0x00, 0x00, 0x00, 0x0c, 0x00, 0x00, 0x00, 0x00, 0x00, 0x06, 0x00,
  0x08, 0x00, 0x07, 0x00, 0x06, 0x00, 0x00, 0x00, 0x00, 0x00, 0x00, 0x01,
  0x01, 0x00, 0x00, 0x00, 0x04, 0x00, 0x00, 0x00, 0x03, 0x00, 0x00, 0x00,
  0x01, 0x00, 0x00, 0x00, 0x02, 0x00, 0x00, 0x00, 0x03, 0x00, 0x00, 0x00,
  0x00, 0x00, 0x0a, 0x00, 0x10, 0x00, 0x04, 0x00, 0x08, 0x00, 0x0c, 0x00,
  0x0a, 0x00, 0x00, 0x00, 0x02, 0x00, 0x00, 0x00, 0x10, 0x00, 0x00, 0x00,
  0x04, 0x00, 0x00, 0x00, 0x01, 0x00, 0x00, 0x00, 0x01, 0x00, 0x00, 0x00,
  0x01, 0x00, 0x00, 0x00, 0x0b, 0x00, 0x00, 0x00, 0x01, 0x00, 0x00, 0x00,
  0x0c, 0x00, 0x00, 0x00, 0x01, 0x00, 0x00, 0x00, 0x0b, 0x00, 0x00, 0x00,
  0x0d, 0x00, 0x00, 0x00, 0xe4, 0x05, 0x00, 0x00, 0x48, 0x05, 0x00, 0x00,
  0xa8, 0x04, 0x00, 0x00, 0x34, 0x04, 0x00, 0x00, 0xb0, 0x03, 0x00, 0x00,
  0x0c, 0x03, 0x00, 0x00, 0x98, 0x02, 0x00, 0x00, 0x14, 0x02, 0x00, 0x00,
  0x88, 0x01, 0x00, 0x00, 0xe4, 0x00, 0x00, 0x00, 0x70, 0x00, 0x00, 0x00,
  0x3c, 0x00, 0x00, 0x00, 0x04, 0x00, 0x00, 0x00, 0xd8, 0xff, 0xff, 0xff,
  0x18, 0x00, 0x00, 0x00, 0x04, 0x00, 0x00, 0x00, 0x08, 0x00, 0x00, 0x00,
  0x49, 0x64, 0x65, 0x6e, 0x74, 0x69, 0x74, 0x79, 0x00, 0x00, 0x00, 0x00,
  0x02, 0x00, 0x00, 0x00, 0x01, 0x00, 0x00, 0x00, 0x03, 0x00, 0x00, 0x00,
  0x0c, 0x00, 0x0c, 0x00, 0x04, 0x00, 0x00, 0x00, 0x00, 0x00, 0x08, 0x00,
  0x0c, 0x00, 0x00, 0x00, 0x20, 0x00, 0x00, 0x00, 0x04, 0x00, 0x00, 0x00,
  0x12, 0x00, 0x00, 0x00, 0x64, 0x65, 0x6e, 0x73, 0x65, 0x5f, 0x44, 0x65,
  0x6e, 0x73, 0x65, 0x31, 0x5f, 0x69, 0x6e, 0x70, 0x75, 0x74, 0x00, 0x00,
  0x02, 0x00, 0x00, 0x00, 0x01, 0x00, 0x00, 0x00, 0x78, 0x00, 0x00, 0x00,
  0xc2, 0xfa, 0xff, 0xff, 0x00, 0x00, 0x00, 0x02, 0x60, 0x00, 0x00, 0x00,
  0x01, 0x00, 0x00, 0x00, 0x2c, 0x00, 0x00, 0x00, 0x04, 0x00, 0x00, 0x00,
  0xb4, 0xfa, 0xff, 0xff, 0x18, 0x00, 0x00, 0x00, 0x04, 0x00, 0x00, 0x00,
  0x01, 0x00, 0x00, 0x00, 0x00, 0x00, 0x00, 0x00, 0x00, 0x00, 0x00, 0x00,
  0x00, 0x00, 0x00, 0x00, 0x01, 0x00, 0x00, 0x00, 0xfd, 0xe9, 0xad, 0x38,
  0x25, 0x00, 0x00, 0x00, 0x73, 0x65, 0x71, 0x75, 0x65, 0x6e, 0x74, 0x69,
  0x61, 0x6c, 0x5f, 0x31, 0x2f, 0x64, 0x65, 0x6e, 0x73, 0x65, 0x5f, 0x44,
  0x65, 0x6e, 0x73, 0x65, 0x33, 0x2f, 0x4d, 0x61, 0x74, 0x4d, 0x75, 0x6c,
  0x5f, 0x62, 0x69, 0x61, 0x73, 0x00, 0x00, 0x00, 0x01, 0x00, 0x00, 0x00,
  0x03, 0x00, 0x00, 0x00, 0x32, 0xfb, 0xff, 0xff, 0x00, 0x00, 0x00, 0x09,
  0x8c, 0x00, 0x00, 0x00, 0x02, 0x00, 0x00, 0x00, 0x44, 0x00, 0x00, 0x00,
  0x04, 0x00, 0x00, 0x00, 0xbc, 0xfb, 0xff, 0xff, 0x30, 0x00, 0x00, 0x00,
  0x24, 0x00, 0x00, 0x00, 0x18, 0x00, 0x00, 0x00, 0x04, 0x00, 0x00, 0x00,
  0x01, 0x00, 0x00, 0x00, 0x00, 0x00, 0x00, 0x00, 0x00, 0x00, 0x00, 0x00,
  0x00, 0x00, 0x00, 0x00, 0x01, 0x00, 0x00, 0x00, 0xfb, 0x54, 0x19, 0x3c,
  0x01, 0x00, 0x00, 0x00, 0x51, 0x22, 0x98, 0x3f, 0x01, 0x00, 0x00, 0x00,
  0x09, 0x61, 0x8a, 0xbf, 0x39, 0x00, 0x00, 0x00, 0x73, 0x65, 0x71, 0x75,
  0x65, 0x6e, 0x74, 0x69, 0x61, 0x6c, 0x5f, 0x31, 0x2f, 0x64, 0x65, 0x6e,
  0x73, 0x65, 0x5f, 0x44, 0x65, 0x6e, 0x73, 0x65, 0x33, 0x2f, 0x4d, 0x61,
  0x74, 0x4d, 0x75, 0x6c, 0x2f, 0x52, 0x65, 0x61, 0x64, 0x56, 0x61, 0x72,
  0x69, 0x61, 0x62, 0x6c, 0x65, 0x4f, 0x70, 0x2f, 0x74, 0x72, 0x61, 0x6e,
  0x73, 0x70, 0x6f, 0x73, 0x65, 0x00, 0x00, 0x00, 0x02, 0x00, 0x00, 0x00,
  0x03, 0x00, 0x00, 0x00, 0x0f, 0x00, 0x00, 0x00, 0xd2, 0xfb, 0xff, 0xff,
  0x00, 0x00, 0x00, 0x09, 0x74, 0x00, 0x00, 0x00, 0x0b, 0x00, 0x00, 0x00,
  0x44, 0x00, 0x00, 0x00, 0x04, 0x00, 0x00, 0x00, 0x5c, 0xfc, 0xff, 0xff,
  0x30, 0x00, 0x00, 0x00, 0x24, 0x00, 0x00, 0x00, 0x18, 0x00, 0x00, 0x00,
  0x04, 0x00, 0x00, 0x00, 0x01, 0x00, 0x00, 0x00, 0x14, 0x00, 0x00, 0x00,
  0x00, 0x00, 0x00, 0x00, 0x00, 0x00, 0x00, 0x00, 0x01, 0x00, 0x00, 0x00,
  0x58, 0x02, 0x31, 0x3d, 0x01, 0x00, 0x00, 0x00, 0xa5, 0xcb, 0x93, 0x40,
  0x01, 0x00, 0x00, 0x00, 0x07, 0xd7, 0xcc, 0xc0, 0x21, 0x00, 0x00, 0x00,
  0x73, 0x65, 0x71, 0x75, 0x65, 0x6e, 0x74, 0x69, 0x61, 0x6c, 0x5f, 0x31,
  0x2f, 0x64, 0x65, 0x6e, 0x73, 0x65, 0x5f, 0x44, 0x65, 0x6e, 0x73, 0x65,
  0x33, 0x2f, 0x42, 0x69, 0x61, 0x73, 0x41, 0x64, 0x64, 0x00, 0x00, 0x00,
  0x02, 0x00, 0x00, 0x00, 0x01, 0x00, 0x00, 0x00, 0x03, 0x00, 0x00, 0x00,
  0x5a, 0xfc, 0xff, 0xff, 0x00, 0x00, 0x00, 0x09, 0x6c, 0x00, 0x00, 0x00,
  0x08, 0x00, 0x00, 0x00, 0x40, 0x00, 0x00, 0x00, 0x04, 0x00, 0x00, 0x00,
  0xe4, 0xfc, 0xff, 0xff, 0x2c, 0x00, 0x00, 0x00, 0x20, 0x00, 0x00, 0x00,
  0x14, 0x00, 0x00, 0x00, 0x04, 0x00, 0x00, 0x00, 0x01, 0x00, 0x00, 0x00,
  0x80, 0xff, 0xff, 0xff, 0xff, 0xff, 0xff, 0xff, 0x01, 0x00, 0x00, 0x00,
  0x84, 0x2e, 0x11, 0x3c, 0x01, 0x00, 0x00, 0x00, 0x55, 0x9d, 0x10, 0x40,
  0x01, 0x00, 0x00, 0x00, 0x00, 0x00, 0x00, 0x00, 0x1e, 0x00, 0x00, 0x00,
  0x73, 0x65, 0x71, 0x75, 0x65, 0x6e, 0x74, 0x69, 0x61, 0x6c, 0x5f, 0x31,
  0x2f, 0x64, 0x65, 0x6e, 0x73, 0x65, 0x5f, 0x44, 0x65, 0x6e, 0x73, 0x65,
  0x32, 0x2f, 0x52, 0x65, 0x6c, 0x75, 0x00, 0x00, 0x02, 0x00, 0x00, 0x00,
  0x01, 0x00, 0x00, 0x00, 0x0f, 0x00, 0x00, 0x00, 0xda, 0xfc, 0xff, 0xff,
  0x00, 0x00, 0x00, 0x02, 0x60, 0x00, 0x00, 0x00, 0x03, 0x00, 0x00, 0x00,
  0x2c, 0x00, 0x00, 0x00, 0x04, 0x00, 0x00, 0x00, 0xcc, 0xfc, 0xff, 0xff,
  0x18, 0x00, 0x00, 0x00, 0x04, 0x00, 0x00, 0x00, 0x01, 0x00, 0x00, 0x00,
  0x00, 0x00, 0x00, 0x00, 0x00, 0x00, 0x00, 0x00, 0x00, 0x00, 0x00, 0x00,
  0x01, 0x00, 0x00, 0x00, 0xe0, 0xee, 0xc6, 0x37, 0x25, 0x00, 0x00, 0x00,
  0x73, 0x65, 0x71, 0x75, 0x65, 0x6e, 0x74, 0x69, 0x61, 0x6c, 0x5f, 0x31,
  0x2f, 0x64, 0x65, 0x6e, 0x73, 0x65, 0x5f, 0x44, 0x65, 0x6e, 0x73, 0x65,
  0x32, 0x2f, 0x4d, 0x61, 0x74, 0x4d, 0x75, 0x6c, 0x5f, 0x62, 0x69, 0x61,
  0x73, 0x00, 0x00, 0x00, 0x01, 0x00, 0x00, 0x00, 0x0f, 0x00, 0x00, 0x00,
  0x4a, 0xfd, 0xff, 0xff, 0x00, 0x00, 0x00, 0x09, 0x8c, 0x00, 0x00, 0x00,
  0x06, 0x00, 0x00, 0x00, 0x44, 0x00, 0x00, 0x00, 0x04, 0x00, 0x00, 0x00,
  0xd4, 0xfd, 0xff, 0xff, 0x30, 0x00, 0x00, 0x00, 0x24, 0x00, 0x00, 0x00,
  0x18, 0x00, 0x00, 0x00, 0x04, 0x00, 0x00, 0x00, 0x01, 0x00, 0x00, 0x00,
  0x00, 0x00, 0x00, 0x00, 0x00, 0x00, 0x00, 0x00, 0x00, 0x00, 0x00, 0x00,
  0x01, 0x00, 0x00, 0x00, 0x66, 0xeb, 0xb1, 0x3b, 0x01, 0x00, 0x00, 0x00,
  0x8f, 0x87, 0x30, 0x3f, 0x01, 0x00, 0x00, 0x00, 0x03, 0xc6, 0x1f, 0xbf,
  0x39, 0x00, 0x00, 0x00, 0x73, 0x65, 0x71, 0x75, 0x65, 0x6e, 0x74, 0x69,
  0x61, 0x6c, 0x5f, 0x31, 0x2f, 0x64, 0x65, 0x6e, 0x73, 0x65, 0x5f, 0x44,
  0x65, 0x6e, 0x73, 0x65, 0x32, 0x2f, 0x4d, 0x61, 0x74, 0x4d, 0x75, 0x6c,
  0x2f, 0x52, 0x65, 0x61, 0x64, 0x56, 0x61, 0x72, 0x69, 0x61, 0x62, 0x6c,
  0x65, 0x4f, 0x70, 0x2f, 0x74, 0x72, 0x61, 0x6e, 0x73, 0x70, 0x6f, 0x73,
  0x65, 0x00, 0x00, 0x00, 0x02, 0x00, 0x00, 0x00, 0x0f, 0x00, 0x00, 0x00,
  0x32, 0x00, 0x00, 0x00, 0xea, 0xfd, 0xff, 0xff, 0x00, 0x00, 0x00, 0x09,
  0x6c, 0x00, 0x00, 0x00, 0x0a, 0x00, 0x00, 0x00, 0x40, 0x00, 0x00, 0x00,
  0x04, 0x00, 0x00, 0x00, 0x74, 0xfe, 0xff, 0xff, 0x2c, 0x00, 0x00, 0x00,
  0x20, 0x00, 0x00, 0x00, 0x14, 0x00, 0x00, 0x00, 0x04, 0x00, 0x00, 0x00,
  0x01, 0x00, 0x00, 0x00, 0x80, 0xff, 0xff, 0xff, 0xff, 0xff, 0xff, 0xff,
  0x01, 0x00, 0x00, 0x00, 0x23, 0x1e, 0x8f, 0x3b, 0x01, 0x00, 0x00, 0x00,
  0x05, 0x8f, 0x8e, 0x3f, 0x01, 0x00, 0x00, 0x00, 0x00, 0x00, 0x00, 0x00,
  0x1e, 0x00, 0x00, 0x00, 0x73, 0x65, 0x71, 0x75, 0x65, 0x6e, 0x74, 0x69,
  0x61, 0x6c, 0x5f, 0x31, 0x2f, 0x64, 0x65, 0x6e, 0x73, 0x65, 0x5f, 0x44,
  0x65, 0x6e, 0x73, 0x65, 0x31, 0x2f, 0x52, 0x65, 0x6c, 0x75, 0x00, 0x00,
  0x02, 0x00, 0x00, 0x00, 0x01, 0x00, 0x00, 0x00, 0x32, 0x00, 0x00, 0x00,
  0x6a, 0xfe, 0xff, 0xff, 0x00, 0x00, 0x00, 0x02, 0x60, 0x00, 0x00, 0x00,
  0x04, 0x00, 0x00, 0x00, 0x2c, 0x00, 0x00, 0x00, 0x04, 0x00, 0x00, 0x00,
  0x5c, 0xfe, 0xff, 0xff, 0x18, 0x00, 0x00, 0x00, 0x04, 0x00, 0x00, 0x00,
  0x01, 0x00, 0x00, 0x00, 0x00, 0x00, 0x00, 0x00, 0x00, 0x00, 0x00, 0x00,
  0x00, 0x00, 0x00, 0x00, 0x01, 0x00, 0x00, 0x00, 0xd6, 0x03, 0x8e, 0x37,
  0x25, 0x00, 0x00, 0x00, 0x73, 0x65, 0x71, 0x75, 0x65, 0x6e, 0x74, 0x69,
  0x61, 0x6c, 0x5f, 0x31, 0x2f, 0x64, 0x65, 0x6e, 0x73, 0x65, 0x5f, 0x44,
  0x65, 0x6e, 0x73, 0x65, 0x31, 0x2f, 0x4d, 0x61, 0x74, 0x4d, 0x75, 0x6c,
  0x5f, 0x62, 0x69, 0x61, 0x73, 0x00, 0x00, 0x00, 0x01, 0x00, 0x00, 0x00,
  0x32, 0x00, 0x00, 0x00, 0xda, 0xfe, 0xff, 0xff, 0x00, 0x00, 0x00, 0x09,
  0x88, 0x00, 0x00, 0x00, 0x09, 0x00, 0x00, 0x00, 0x40, 0x00, 0x00, 0x00,
  0x04, 0x00, 0x00, 0x00, 0x64, 0xff, 0xff, 0xff, 0x2c, 0x00, 0x00, 0x00,
  0x20, 0x00, 0x00, 0x00, 0x14, 0x00, 0x00, 0x00, 0x04, 0x00, 0x00, 0x00,
  0x01, 0x00, 0x00, 0x00, 0x00, 0x00, 0x00, 0x00, 0x00, 0x00, 0x00, 0x00,
  0x01, 0x00, 0x00, 0x00, 0xc4, 0x33, 0x43, 0x3b, 0x01, 0x00, 0x00, 0x00,
  0xcd, 0xb7, 0xc0, 0x3e, 0x01, 0x00, 0x00, 0x00, 0x5c, 0xad, 0xc1, 0xbe,
  0x39, 0x00, 0x00, 0x00, 0x73, 0x65, 0x71, 0x75, 0x65, 0x6e, 0x74, 0x69,
  0x61, 0x6c, 0x5f, 0x31, 0x2f, 0x64, 0x65, 0x6e, 0x73, 0x65, 0x5f, 0x44,
  0x65, 0x6e, 0x73, 0x65, 0x31, 0x2f, 0x4d, 0x61, 0x74, 0x4d, 0x75, 0x6c,
  0x2f, 0x52, 0x65, 0x61, 0x64, 0x56, 0x61, 0x72, 0x69, 0x61, 0x62, 0x6c,
  0x65, 0x4f, 0x70, 0x2f, 0x74, 0x72, 0x61, 0x6e, 0x73, 0x70, 0x6f, 0x73,
  0x65, 0x00, 0x00, 0x00, 0x02, 0x00, 0x00, 0x00, 0x32, 0x00, 0x00, 0x00,
  0x78, 0x00, 0x00, 0x00, 0x76, 0xff, 0xff, 0xff, 0x00, 0x00, 0x00, 0x09,
  0x74, 0x00, 0x00, 0x00, 0x07, 0x00, 0x00, 0x00, 0x50, 0x00, 0x00, 0x00,
  0x10, 0x00, 0x00, 0x00, 0x0c, 0x00, 0x14, 0x00, 0x04, 0x00, 0x08, 0x00,
  0x0c, 0x00, 0x10, 0x00, 0x0c, 0x00, 0x00, 0x00, 0x30, 0x00, 0x00, 0x00,
  0x24, 0x00, 0x00, 0x00, 0x18, 0x00, 0x00, 0x00, 0x04, 0x00, 0x00, 0x00,
  0x01, 0x00, 0x00, 0x00, 0x30, 0x00, 0x00, 0x00, 0x00, 0x00, 0x00, 0x00,
  0x00, 0x00, 0x00, 0x00, 0x01, 0x00, 0x00, 0x00, 0x3f, 0x3f, 0xba, 0x3b,
  0x01, 0x00, 0x00, 0x00, 0x00, 0x24, 0xe6, 0x3e, 0x01, 0x00, 0x00, 0x00,
  0x00, 0xf8, 0x7f, 0xbf, 0x17, 0x00, 0x00, 0x00, 0x64, 0x65, 0x6e, 0x73,
  0x65, 0x5f, 0x44, 0x65, 0x6e, 0x73, 0x65, 0x31, 0x5f, 0x69, 0x6e, 0x70,
  0x75, 0x74, 0x5f, 0x69, 0x6e, 0x74, 0x38, 0x00, 0x02, 0x00, 0x00, 0x00,
  0x01, 0x00, 0x00, 0x00, 0x78, 0x00, 0x00, 0x00, 0x00, 0x00, 0x0e, 0x00,
  0x18, 0x00, 0x08, 0x00, 0x07, 0x00, 0x0c, 0x00, 0x10, 0x00, 0x14, 0x00,
  0x0e, 0x00, 0x00, 0x00, 0x00, 0x00, 0x00, 0x09, 0x54, 0x00, 0x00, 0x00,
  0x05, 0x00, 0x00, 0x00, 0x38, 0x00, 0x00, 0x00, 0x10, 0x00, 0x00, 0x00,
  0x0c, 0x00, 0x0c, 0x00, 0x00, 0x00, 0x00, 0x00, 0x04, 0x00, 0x08, 0x00,
  0x0c, 0x00, 0x00, 0x00, 0x18, 0x00, 0x00, 0x00, 0x04, 0x00, 0x00, 0x00,
  0x01, 0x00, 0x00, 0x00, 0x80, 0xff, 0xff, 0xff, 0xff, 0xff, 0xff, 0xff,
  0x00, 0x00, 0x00, 0x00, 0x01, 0x00, 0x00, 0x00, 0x00, 0x00, 0x80, 0x3b,
  0x0d, 0x00, 0x00, 0x00, 0x49, 0x64, 0x65, 0x6e, 0x74, 0x69, 0x74, 0x79,
  0x5f, 0x69, 0x6e, 0x74, 0x38, 0x00, 0x00, 0x00, 0x02, 0x00, 0x00, 0x00,
  0x01, 0x00, 0x00, 0x00, 0x03, 0x00, 0x00, 0x00, 0x04, 0x00, 0x00, 0x00,
  0x4c, 0x00, 0x00, 0x00, 0x30, 0x00, 0x00, 0x00, 0x1c, 0x00, 0x00, 0x00,
  0x04, 0x00, 0x00, 0x00, 0xe6, 0xff, 0xff, 0xff, 0x00, 0x00, 0x00, 0x06,
  0x02, 0x00, 0x00, 0x00, 0x00, 0x00, 0x06, 0x00, 0x06, 0x00, 0x05, 0x00,
  0x06, 0x00, 0x00, 0x00, 0x00, 0x72, 0x0a, 0x00, 0x0e, 0x00, 0x07, 0x00,
  0x00, 0x00, 0x08, 0x00, 0x0a, 0x00, 0x00, 0x00, 0x00, 0x00, 0x00, 0x19,
  0x02, 0x00, 0x00, 0x00, 0x00, 0x00, 0x0a, 0x00, 0x0c, 0x00, 0x07, 0x00,
  0x00, 0x00, 0x08, 0x00, 0x0a, 0x00, 0x00, 0x00, 0x00, 0x00, 0x00, 0x09,
  0x04, 0x00, 0x00, 0x00

};